{
  "version": "1.0",
  "truncation": null,
  "padding": null,
  "added_tokens": [
    {
      "id": 0,
      "content": "[UNK]",
      "single_word": false,
      "lstrip": false,
      "rstrip": false,
      "normalized": false,
      "special": true
    },
    {
      "id": 1,
      "content": "[CLS]",
      "single_word": false,
      "lstrip": false,
      "rstrip": false,
      "normalized": false,
      "special": true
    },
    {
      "id": 2,
      "content": "[SEP]",
      "single_word": false,
      "lstrip": false,
      "rstrip": false,
      "normalized": false,
      "special": true
    },
    {
      "id": 3,
      "content": "[PAD]",
      "single_word": false,
      "lstrip": false,
      "rstrip": false,
      "normalized": false,
      "special": true
    },
    {
      "id": 4,
      "content": "[MASK]",
      "single_word": false,
      "lstrip": false,
      "rstrip": false,
      "normalized": false,
      "special": true
    }
  ],
  "normalizer": null,
  "pre_tokenizer": {
    "type": "Whitespace"
  },
  "post_processor": null,
  "decoder": null,
  "model": {
    "type": "BPE",
    "dropout": null,
    "unk_token": "[UNK]",
    "continuing_subword_prefix": null,
    "end_of_word_suffix": null,
    "fuse_unk": false,
    "byte_fallback": false,
    "ignore_merges": false,
    "vocab": {
      "[UNK]": 0,
      "[CLS]": 1,
      "[SEP]": 2,
      "[PAD]": 3,
      "[MASK]": 4,
      "!": 5,
      "\"": 6,
      "$": 7,
      "&": 8,
      "'": 9,
      "(": 10,
      ")": 11,
      "*": 12,
      "+": 13,
      ",": 14,
      "-": 15,
      ".": 16,
      "/": 17,
      "0": 18,
      "1": 19,
      "2": 20,
      "3": 21,
      "4": 22,
      "5": 23,
      "6": 24,
      "7": 25,
      "8": 26,
      "9": 27,
      ":": 28,
      ";": 29,
      "?": 30,
      "A": 31,
      "B": 32,
      "C": 33,
      "D": 34,
      "E": 35,
      "F": 36,
      "G": 37,
      "H": 38,
      "I": 39,
      "J": 40,
      "K": 41,
      "L": 42,
      "M": 43,
      "N": 44,
      "O": 45,
      "P": 46,
      "Q": 47,
      "R": 48,
      "S": 49,
      "T": 50,
      "U": 51,
      "V": 52,
      "W": 53,
      "X": 54,
      "Y": 55,
      "Z": 56,
      "a": 57,
      "b": 58,
      "c": 59,
      "d": 60,
      "e": 61,
      "f": 62,
      "g": 63,
      "h": 64,
      "i": 65,
      "j": 66,
      "k": 67,
      "l": 68,
      "m": 69,
      "n": 70,
      "o": 71,
      "p": 72,
      "q": 73,
      "r": 74,
      "s": 75,
      "t": 76,
      "u": 77,
      "v": 78,
      "w": 79,
      "x": 80,
      "y": 81,
      "z": 82,
      "¡": 83,
      "¦": 84,
      "©": 85,
      "«": 86,
      "±": 87,
      "³": 88,
      "´": 89,
      "»": 90,
      "Â": 91,
      "Ã": 92,
      "â": 93,
      "œ": 94,
      "˜": 95,
      "“": 96,
      "”": 97,
      "‰": 98,
      "€": 99,
      "™": 100,
      "he": 101,
      "an": 102,
      "the": 103,
      "ed": 104,
      "and": 105,
      "to": 106,
      "in": 107,
      "re": 108,
      "ou": 109,
      "wa": 110,
      "it": 111,
      "ha": 112,
      "er": 113,
      "was": 114,
      "om": 115,
      "en": 116,
      "on": 117,
      "The": 118,
      "ar": 119,
      "is": 120,
      "il": 121,
      "ing": 122,
      "sa": 123,
      "id": 124,
      "ay": 125,
      "le": 126,
      "im": 127,
      "lo": 128,
      "or": 129,
      "al": 130,
      "st": 131,
      "her": 132,
      "He": 133,
      "She": 134,
      "ir": 135,
      "They": 136,
      "th": 137,
      "be": 138,
      "ne": 139,
      "hat": 140,
      "ver": 141,
      "ut": 142,
      "se": 143,
      "ke": 144,
      "ily": 145,
      "no": 146,
      "at": 147,
      "am": 148,
      "ck": 149,
      "ld": 150,
      "ce": 151,
      "ve": 152,
      "said": 153,
      "ri": 154,
      "Lily": 155,
      "she": 156,
      "pl": 157,
      "ith": 158,
      "with": 159,
      "pp": 160,
      "ig": 161,
      "his": 162,
      "of": 163,
      "ad": 164,
      "un": 165,
      "you": 166,
      "ked": 167,
      "day": 168,
      "so": 169,
      "ly": 170,
      "we": 171,
      "very": 172,
      "ome": 173,
      "my": 174,
      "li": 175,
      "that": 176,
      "up": 177,
      "go": 178,
      "ow": 179,
      "ant": 180,
      "play": 181,
      "es": 182,
      "ch": 183,
      "as": 184,
      "had": 185,
      "they": 186,
      "for": 187,
      "mom": 188,
      "fe": 189,
      "nd": 190,
      "ould": 191,
      "end": 192,
      "all": 193,
      "bo": 194,
      "happ": 195,
      "want": 196,
      "ent": 197,
      "itt": 198,
      "are": 199,
      "ge": 200,
      "ok": 201,
      "tim": 202,
      "It": 203,
      "do": 204,
      "not": 205,
      "out": 206,
      "ro": 207,
      "ther": 208,
      "ound": 209,
      "ittle": 210,
      "time": 211,
      "little": 212,
      "ry": 213,
      "happy": 214,
      "there": 215,
      "big": 216,
      "sh": 217,
      "ht": 218,
      "ra": 219,
      "ys": 220,
      "sm": 221,
      "fri": 222,
      "but": 223,
      "ake": 224,
      "saw": 225,
      "Tim": 226,
      "friend": 227,
      "ter": 228,
      ".\"": 229,
      "One": 230,
      "ack": 231,
      "ide": 232,
      "ll": 233,
      "some": 234,
      "thing": 235,
      "On": 236,
      "one": 237,
      "ved": 238,
      "ug": 239,
      "were": 240,
      "!\"": 241,
      "Once": 242,
      "ho": 243,
      "car": 244,
      "fu": 245,
      "him": 246,
      "pe": 247,
      "Ben": 248,
      "wanted": 249,
      "them": 250,
      "upon": 251,
      "Tom": 252,
      "irl": 253,
      "their": 254,
      "girl": 255,
      "me": 256,
      "did": 257,
      "ind": 258,
      "ill": 259,
      "ag": 260,
      "co": 261,
      "could": 262,
      "have": 263,
      "mo": 264,
      "smil": 265,
      "ful": 266,
      "hen": 267,
      "ur": 268,
      "ex": 269,
      "But": 270,
      "hel": 271,
      "went": 272,
      "can": 273,
      "nam": 274,
      "rom": 275,
      "ted": 276,
      "new": 277,
      "de": 278,
      "od": 279,
      "?\"": 280,
      "help": 281,
      "friends": 282,
      "Timmy": 283,
      "ab": 284,
      "um": 285,
      "back": 286,
      "You": 287,
      "fun": 288,
      "hed": 289,
      "ain": 290,
      "way": 291,
      "lt": 292,
      "like": 293,
      "par": 294,
      "too": 295,
      "side": 296,
      "named": 297,
      "ic": 298,
      "man": 299,
      "fo": 300,
      "ran": 301,
      "loved": 302,
      "ght": 303,
      "star": 304,
      "po": 305,
      "el": 306,
      "felt": 307,
      "low": 308,
      "see": 309,
      "asked": 310,
      "loo": 311,
      "smiled": 312,
      "ick": 313,
      "sto": 314,
      "et": 315,
      "Mom": 316,
      "looked": 317,
      "ame": 318,
      "own": 319,
      "make": 320,
      "ard": 321,
      "bir": 322,
      "ure": 323,
      "around": 324,
      "pr": 325,
      "would": 326,
      "now": 327,
      "wor": 328,
      "boy": 329,
      "gr": 330,
      "fa": 331,
      "ong": 332,
      "bird": 333,
      "other": 334,
      "la": 335,
      "park": 336,
      "mad": 337,
      "tre": 338,
      "what": 339,
      "op": 340,
      "ca": 341,
      "gether": 342,
      ",\"": 343,
      "ice": 344,
      "says": 345,
      "away": 346,
      "made": 347,
      "oud": 348,
      "came": 349,
      "ss": 350,
      "together": 351,
      "started": 352,
      "dd": 353,
      "na": 354,
      "ight": 355,
      "get": 356,
      "put": 357,
      "sad": 358,
      "something": 359,
      "got": 360,
      "ited": 361,
      "look": 362,
      "again": 363,
      "from": 364,
      "ue": 365,
      "ts": 366,
      "scar": 367,
      "home": 368,
      "good": 369,
      "mu": 370,
      "te": 371,
      "ach": 372,
      "ried": 373,
      "if": 374,
      "who": 375,
      "found": 376,
      "exc": 377,
      "then": 378,
      "more": 379,
      "hug": 380,
      "cid": 381,
      "wal": 382,
      "ie": 383,
      "playing": 384,
      "pped": 385,
      "when": 386,
      "ep": 387,
      "ought": 388,
      "ave": 389,
      "ru": 390,
      "liked": 391,
      "king": 392,
      "things": 393,
      "ci": 394,
      "ally": 395,
      "Sam": 396,
      "An": 397,
      "every": 398,
      "der": 399,
      "We": 400,
      "by": 401,
      "ax": 402,
      "dog": 403,
      "your": 404,
      "care": 405,
      "ny": 406,
      "decid": 407,
      "bu": 408,
      "excited": 409,
      "ous": 410,
      "decided": 411,
      "pre": 412,
      "use": 413,
      "ouse": 414,
      "ara": 415,
      "down": 416,
      "find": 417,
      "Max": 418,
      "scared": 419,
      "arn": 420,
      "feel": 421,
      "sha": 422,
      "dad": 423,
      "take": 424,
      "than": 425,
      "spe": 426,
      "Anna": 427,
      "ate": 428,
      "ac": 429,
      "ways": 430,
      "jo": 431,
      "didn": 432,
      "toys": 433,
      "will": 434,
      "mommy": 435,
      "took": 436,
      "ang": 437,
      "our": 438,
      "clo": 439,
      "here": 440,
      "Sara": 441,
      "about": 442,
      "always": 443,
      "know": 444,
      "udd": 445,
      "sor": 446,
      "tree": 447,
      "ite": 448,
      "learn": 449,
      "ers": 450,
      "ma": 451,
      "outside": 452,
      "bed": 453,
      "wo": 454,
      "thought": 455,
      "room": 456,
      "ball": 457,
      "ened": 458,
      "ty": 459,
      "ive": 460,
      "So": 461,
      "wh": 462,
      "ise": 463,
      "cat": 464,
      "qu": 465,
      "ust": 466,
      "Her": 467,
      "old": 468,
      "fore": 469,
      "ged": 470,
      "red": 471,
      "run": 472,
      "any": 473,
      "When": 474,
      "pu": 475,
      "laug": 476,
      "toy": 477,
      "knew": 478,
      "pa": 479,
      "sed": 480,
      "house": 481,
      "fter": 482,
      "sorry": 483,
      "come": 484,
      "speci": 485,
      "how": 486,
      "ish": 487,
      "special": 488,
      "br": 489,
      "show": 490,
      "bl": 491,
      "ink": 492,
      "never": 493,
      "ist": 494,
      "udden": 495,
      "dre": 496,
      "much": 497,
      "ol": 498,
      "sw": 499,
      "Jo": 500,
      "cle": 501,
      "gave": 502,
      "careful": 503,
      "lf": 504,
      "uddenly": 505,
      "ia": 506,
      "cre": 507,
      "rd": 508,
      "able": 509,
      "told": 510,
      "hand": 511,
      "water": 512,
      "ven": 513,
      "sun": 514,
      "long": 515,
      "sk": 516,
      "tried": 517,
      "box": 518,
      "tter": 519,
      "Every": 520,
      "love": 521,
      "Jack": 522,
      "rab": 523,
      "ta": 524,
      "inside": 525,
      "into": 526,
      "played": 527,
      "over": 528,
      "cl": 529,
      "proud": 530,
      "eat": 531,
      "pret": 532,
      "cause": 533,
      "couldn": 534,
      "each": 535,
      "pick": 536,
      "gre": 537,
      "heard": 538,
      "sp": 539,
      "From": 540,
      "dy": 541,
      "Mia": 542,
      "hugged": 543,
      "this": 544,
      "because": 545,
      "ion": 546,
      "Let": 547,
      "And": 548,
      "wat": 549,
      "ump": 550,
      "fly": 551,
      "nice": 552,
      "many": 553,
      "need": 554,
      "just": 555,
      "Suddenly": 556,
      "com": 557,
      "che": 558,
      "ct": 559,
      "unt": 560,
      "ear": 561,
      "ber": 562,
      "Then": 563,
      "ile": 564,
      "flow": 565,
      "right": 566,
      "His": 567,
      "learned": 568,
      "small": 569,
      "iz": 570,
      "try": 571,
      "pot": 572,
      "lad": 573,
      "bear": 574,
      "shin": 575,
      "ving": 576,
      "off": 577,
      "uc": 578,
      "better": 579,
      "uck": 580,
      "ket": 581,
      "imal": 582,
      "animal": 583,
      "per": 584,
      "That": 585,
      "oug": 586,
      "read": 587,
      "its": 588,
      "ough": 589,
      "ble": 590,
      "fast": 591,
      "until": 592,
      "exp": 593,
      "self": 594,
      "fi": 595,
      "kind": 596,
      "say": 597,
      "hur": 598,
      "where": 599,
      "bit": 600,
      "best": 601,
      "bea": 602,
      "call": 603,
      "Yes": 604,
      "don": 605,
      "vent": 606,
      "urn": 607,
      "bra": 608,
      "sky": 609,
      "What": 610,
      "even": 611,
      "safe": 612,
      "thanked": 613,
      "nt": 614,
      "rong": 615,
      "Can": 616,
      "explo": 617,
      "fle": 618,
      "ank": 619,
      "gard": 620,
      "let": 621,
      "garden": 622,
      "list": 623,
      "ace": 624,
      "under": 625,
      "beaut": 626,
      "loud": 627,
      "jump": 628,
      "still": 629,
      "yes": 630,
      "fin": 631,
      "us": 632,
      "pt": 633,
      "laughed": 634,
      "fam": 635,
      "give": 636,
      "lots": 637,
      "sur": 638,
      "Mommy": 639,
      "ched": 640,
      "rain": 641,
      "animals": 642,
      "iful": 643,
      "beautiful": 644,
      "ama": 645,
      "joy": 646,
      "Th": 647,
      "book": 648,
      "ning": 649,
      "tru": 650,
      "cks": 651,
      "turn": 652,
      "As": 653,
      "hurt": 654,
      "lived": 655,
      "won": 656,
      "ground": 657,
      "bad": 658,
      "both": 659,
      "ople": 660,
      "Thank": 661,
      "stay": 662,
      "After": 663,
      "hard": 664,
      "No": 665,
      "ree": 666,
      "ished": 667,
      "Joh": 668,
      "brave": 669,
      "John": 670,
      "should": 671,
      "share": 672,
      "pic": 673,
      "people": 674,
      "family": 675,
      "lea": 676,
      "keep": 677,
      "angry": 678,
      "rm": 679,
      "igh": 680,
      "ine": 681,
      "con": 682,
      "sl": 683,
      "clean": 684,
      "ass": 685,
      "walked": 686,
      "ob": 687,
      "app": 688,
      "real": 689,
      "pretty": 690,
      "flew": 691,
      "doll": 692,
      "ook": 693,
      "two": 694,
      "Luc": 695,
      "ort": 696,
      "called": 697,
      "Lucy": 698,
      "arm": 699,
      "door": 700,
      "soon": 701,
      "surpr": 702,
      "ting": 703,
      "has": 704,
      "bro": 705,
      "shiny": 706,
      "lot": 707,
      "place": 708,
      "imp": 709,
      "dra": 710,
      "kept": 711,
      "wind": 712,
      "ised": 713,
      "going": 714,
      "ummy": 715,
      "cry": 716,
      "illy": 717,
      "opened": 718,
      "cu": 719,
      "mem": 720,
      "feeling": 721,
      "ane": 722,
      "Dad": 723,
      "ste": 724,
      "ser": 725,
      "ask": 726,
      "colo": 727,
      "advent": 728,
      "noise": 729,
      "set": 730,
      "ild": 731,
      "also": 732,
      "picked": 733,
      "hear": 734,
      "tal": 735,
      "ture": 736,
      "color": 737,
      "while": 738,
      "explore": 739,
      "nex": 740,
      "before": 741,
      "nodd": 742,
      "aybe": 743,
      "idea": 744,
      "nodded": 745,
      "next": 746,
      "clim": 747,
      "picture": 748,
      "fish": 749,
      "ied": 750,
      "thr": 751,
      "uch": 752,
      "face": 753,
      "mor": 754,
      "less": 755,
      "work": 756,
      "ies": 757,
      "lled": 758,
      "smile": 759,
      "Bob": 760,
      "led": 761,
      "being": 762,
      "ak": 763,
      "listen": 764,
      "head": 765,
      "weet": 766,
      "Do": 767,
      "blue": 768,
      "cha": 769,
      "member": 770,
      "adventure": 771,
      "walking": 772,
      "food": 773,
      "lie": 774,
      "think": 775,
      "ark": 776,
      "night": 777,
      "Sue": 778,
      "looking": 779,
      "iced": 780,
      "ever": 781,
      "walk": 782,
      "dif": 783,
      "grab": 784,
      "slide": 785,
      "after": 786,
      "ess": 787,
      "ized": 788,
      "eyes": 789,
      "ught": 790,
      "hands": 791,
      "boat": 792,
      "remember": 793,
      "cake": 794,
      "flowers": 795,
      "€™": 796,
      "truck": 797,
      "watch": 798,
      "wait": 799,
      "blo": 800,
      "stick": 801,
      "stopped": 802,
      "Look": 803,
      "Spot": 804,
      "les": 805,
      "ries": 806,
      "wonder": 807,
      "great": 808,
      "mean": 809,
      "dis": 810,
      "okay": 811,
      "light": 812,
      "ings": 813,
      "amaz": 814,
      "cook": 815,
      "tell": 816,
      "cho": 817,
      "showed": 818,
      "irst": 819,
      "near": 820,
      "enjoy": 821,
      "leave": 822,
      "This": 823,
      "vo": 824,
      "forest": 825,
      "repl": 826,
      "strong": 827,
      "Maybe": 828,
      "llow": 829,
      "noticed": 830,
      "quick": 831,
      "cou": 832,
      "ff": 833,
      "bye": 834,
      "lease": 835,
      "mon": 836,
      "import": 837,
      "sho": 838,
      "shout": 839,
      "rest": 840,
      "follow": 841,
      "everyone": 842,
      "dan": 843,
      "store": 844,
      "sound": 845,
      "tor": 846,
      "sn": 847,
      "important": 848,
      "replied": 849,
      "andma": 850,
      "fere": 851,
      "bow": 852,
      "does": 853,
      "became": 854,
      "differe": 855,
      "cream": 856,
      "ph": 857,
      "ner": 858,
      "sing": 859,
      "watched": 860,
      "stand": 861,
      "ip": 862,
      "sure": 863,
      "ring": 864,
      "high": 865,
      "year": 866,
      "dress": 867,
      "gan": 868,
      "oft": 869,
      "bright": 870,
      "anymore": 871,
      "quickly": 872,
      "ung": 873,
      "laugh": 874,
      "ila": 875,
      "curi": 876,
      "leep": 877,
      "different": 878,
      "mag": 879,
      "tin": 880,
      "Lila": 881,
      "pain": 882,
      "rabbit": 883,
      "bre": 884,
      "voice": 885,
      "cket": 886,
      "tw": 887,
      "top": 888,
      "goodbye": 889,
      "warm": 890,
      "been": 891,
      "flower": 892,
      "ond": 893,
      "curious": 894,
      "Jane": 895,
      "flo": 896,
      "open": 897,
      "mis": 898,
      "butter": 899,
      "pie": 900,
      "fire": 901,
      "ired": 902,
      "kit": 903,
      "times": 904,
      "fav": 905,
      "closer": 906,
      "ward": 907,
      "fell": 908,
      "ached": 909,
      "helped": 910,
      "bor": 911,
      "ready": 912,
      "table": 913,
      "fl": 914,
      "cor": 915,
      "first": 916,
      "sees": 917,
      "Sarah": 918,
      "chen": 919,
      "kitchen": 920,
      "dro": 921,
      "ft": 922,
      "Don": 923,
      "happened": 924,
      "sand": 925,
      "tr": 926,
      "tow": 927,
      "draw": 928,
      "kid": 929,
      "cut": 930,
      "cr": 931,
      "story": 932,
      "only": 933,
      "Hel": 934,
      "glad": 935,
      "birds": 936,
      "ash": 937,
      "Everyone": 938,
      "stop": 939,
      "brother": 940,
      "air": 941,
      "pare": 942,
      "ered": 943,
      "unny": 944,
      "realized": 945,
      "ater": 946,
      "med": 947,
      "grass": 948,
      "three": 949,
      "In": 950,
      "grabbed": 951,
      "ster": 952,
      "used": 953,
      "having": 954,
      "jumped": 955,
      "din": 956,
      "rock": 957,
      "uff": 958,
      "shed": 959,
      "soft": 960,
      "reached": 961,
      "yummy": 962,
      "squ": 963,
      "bal": 964,
      "gu": 965,
      "Joe": 966,
      "ins": 967,
      "deli": 968,
      "sweet": 969,
      "Wh": 970,
      "zy": 971,
      "favor": 972,
      "game": 973,
      "key": 974,
      "through": 975,
      "favorite": 976,
      "fix": 977,
      "prin": 978,
      "piece": 979,
      "que": 980,
      "isy": 981,
      "pretend": 982,
      "tra": 983,
      "coming": 984,
      "Now": 985,
      "lady": 986,
      "world": 987,
      "wel": 988,
      "Wow": 989,
      "shouted": 990,
      "tired": 991,
      "catch": 992,
      "name": 993,
      "ds": 994,
      "cried": 995,
      "cold": 996,
      "kids": 997,
      "funny": 998,
      "paper": 999,
      "move": 1000,
      "worry": 1001,
      "really": 1002,
      "looks": 1003,
      "col": 1004,
      "ike": 1005,
      "another": 1006,
      "mess": 1007,
      "cars": 1008,
      "Benny": 1009,
      "bar": 1010,
      "himself": 1011,
      "duck": 1012,
      "magic": 1013,
      "done": 1014,
      "making": 1015,
      "blocks": 1016,
      "ba": 1017,
      "ped": 1018,
      "There": 1019,
      "pond": 1020,
      "ppy": 1021,
      "cked": 1022,
      "prom": 1023,
      "bag": 1024,
      "nts": 1025,
      "hole": 1026,
      "touch": 1027,
      "hair": 1028,
      "began": 1029,
      "yel": 1030,
      "hind": 1031,
      "green": 1032,
      "Sally": 1033,
      "hold": 1034,
      "cool": 1035,
      "ary": 1036,
      "Fin": 1037,
      "fro": 1038,
      "sy": 1039,
      "waved": 1040,
      "bunny": 1041,
      "dri": 1042,
      "wished": 1043,
      "illed": 1044,
      "thank": 1045,
      "why": 1046,
      "floor": 1047,
      "parents": 1048,
      "olly": 1049,
      "age": 1050,
      "yellow": 1051,
      "behind": 1052,
      "sleep": 1053,
      "rel": 1054,
      "seen": 1055,
      "farm": 1056,
      "cast": 1057,
      "close": 1058,
      "yard": 1059,
      "Tommy": 1060,
      "pro": 1061,
      "lesson": 1062,
      "swing": 1063,
      "climb": 1064,
      "lost": 1065,
      "trees": 1066,
      "ger": 1067,
      "pet": 1068,
      "likes": 1069,
      "swim": 1070,
      "remembered": 1071,
      "mum": 1072,
      "wear": 1073,
      "oney": 1074,
      "sat": 1075,
      "running": 1076,
      "ons": 1077,
      "andy": 1078,
      "worked": 1079,
      "full": 1080,
      "ign": 1081,
      "happily": 1082,
      "far": 1083,
      "snow": 1084,
      "surprise": 1085,
      "hopped": 1086,
      "needed": 1087,
      "dream": 1088,
      "butterfly": 1089,
      "ple": 1090,
      "ation": 1091,
      "turned": 1092,
      "window": 1093,
      "stre": 1094,
      "hill": 1095,
      "mouse": 1096,
      "dark": 1097,
      "doing": 1098,
      "mou": 1099,
      "left": 1100,
      "wrong": 1101,
      "Hello": 1102,
      "aisy": 1103,
      "mar": 1104,
      "At": 1105,
      "slow": 1106,
      "race": 1107,
      "oo": 1108,
      "wood": 1109,
      "buy": 1110,
      "ens": 1111,
      "frog": 1112,
      "cla": 1113,
      "hung": 1114,
      "fair": 1115,
      "held": 1116,
      "hid": 1117,
      "tle": 1118,
      "followed": 1119,
      "bug": 1120,
      "surprised": 1121,
      "enjoyed": 1122,
      "carefully": 1123,
      "Billy": 1124,
      "vis": 1125,
      "tri": 1126,
      "aby": 1127,
      "contin": 1128,
      "Em": 1129,
      "dir": 1130,
      "please": 1131,
      "tall": 1132,
      "finished": 1133,
      "em": 1134,
      "years": 1135,
      "herself": 1136,
      "arri": 1137,
      "chil": 1138,
      "friendly": 1139,
      "ued": 1140,
      "To": 1141,
      "grandma": 1142,
      "dren": 1143,
      "ange": 1144,
      "might": 1145,
      "stran": 1146,
      "\".": 1147,
      "understand": 1148,
      "Be": 1149,
      "bot": 1150,
      "children": 1151,
      "anything": 1152,
      "spot": 1153,
      "forgot": 1154,
      "cious": 1155,
      "Finally": 1156,
      "fr": 1157,
      "ient": 1158,
      "spo": 1159,
      "oken": 1160,
      "asure": 1161,
      "Jen": 1162,
      "cra": 1163,
      "colors": 1164,
      "hot": 1165,
      "castle": 1166,
      "build": 1167,
      "ined": 1168,
      "Daisy": 1169,
      "broken": 1170,
      "gl": 1171,
      "sit": 1172,
      "wants": 1173,
      "ield": 1174,
      "song": 1175,
      "agre": 1176,
      "fight": 1177,
      "wonderful": 1178,
      "uffy": 1179,
      "someone": 1180,
      "leaves": 1181,
      "continued": 1182,
      "gent": 1183,
      "art": 1184,
      "arrived": 1185,
      "fur": 1186,
      "tight": 1187,
      "Jim": 1188,
      "land": 1189,
      "lion": 1190,
      "delicious": 1191,
      "cess": 1192,
      "row": 1193,
      "ye": 1194,
      "erous": 1195,
      "OK": 1196,
      "else": 1197,
      "Why": 1198,
      "gone": 1199,
      "mother": 1200,
      "agreed": 1201,
      "most": 1202,
      "dr": 1203,
      "fru": 1204,
      "fall": 1205,
      "ross": 1206,
      "cookies": 1207,
      "Molly": 1208,
      "pink": 1209,
      "break": 1210,
      "mat": 1211,
      "Amy": 1212,
      "books": 1213,
      "wards": 1214,
      "pat": 1215,
      "creat": 1216,
      "smiles": 1217,
      "poin": 1218,
      "getting": 1219,
      "Go": 1220,
      "mus": 1221,
      "pictures": 1222,
      "filled": 1223,
      "sme": 1224,
      "sail": 1225,
      "whe": 1226,
      "talk": 1227,
      "dinner": 1228,
      "baby": 1229,
      "wet": 1230,
      "tail": 1231,
      "asks": 1232,
      "ather": 1233,
      "white": 1234,
      "cover": 1235,
      "scary": 1236,
      "ence": 1237,
      "icy": 1238,
      "hungry": 1239,
      "ton": 1240,
      "amazing": 1241,
      "ves": 1242,
      "makes": 1243,
      "ot": 1244,
      "sometimes": 1245,
      "irrel": 1246,
      "ced": 1247,
      "tast": 1248,
      "morning": 1249,
      "gon": 1250,
      "av": 1251,
      "oup": 1252,
      "ju": 1253,
      "kay": 1254,
      "moment": 1255,
      "others": 1256,
      "listened": 1257,
      "daddy": 1258,
      "climbed": 1259,
      "met": 1260,
      "pes": 1261,
      "Jill": 1262,
      "squirrel": 1263,
      "thes": 1264,
      "Some": 1265,
      "puppy": 1266,
      "ballo": 1267,
      "Gr": 1268,
      "pack": 1269,
      "trying": 1270,
      "clothes": 1271,
      "enough": 1272,
      "stayed": 1273,
      "finally": 1274,
      "spl": 1275,
      "Come": 1276,
      "zz": 1277,
      "bike": 1278,
      "fect": 1279,
      "waited": 1280,
      "brought": 1281,
      "ub": 1282,
      "music": 1283,
      "sis": 1284,
      "few": 1285,
      "mi": 1286,
      "perfect": 1287,
      "ses": 1288,
      "dang": 1289,
      "plain": 1290,
      "teddy": 1291,
      "everything": 1292,
      "af": 1293,
      "silly": 1294,
      "lls": 1295,
      "sear": 1296,
      "alone": 1297,
      "beach": 1298,
      "ride": 1299,
      "wasn": 1300,
      "ze": 1301,
      "ucky": 1302,
      "train": 1303,
      "grow": 1304,
      "je": 1305,
      "ious": 1306,
      "gg": 1307,
      "ated": 1308,
      "hide": 1309,
      "sister": 1310,
      "pping": 1311,
      "nap": 1312,
      "Oh": 1313,
      "spark": 1314,
      "dance": 1315,
      "strange": 1316,
      "Soon": 1317,
      "amazed": 1318,
      "gi": 1319,
      "lake": 1320,
      "ance": 1321,
      "thinks": 1322,
      "whis": 1323,
      "runs": 1324,
      "cloud": 1325,
      "appear": 1326,
      "thy": 1327,
      "woods": 1328,
      "pulled": 1329,
      "plan": 1330,
      "deep": 1331,
      "ose": 1332,
      "ctor": 1333,
      "All": 1334,
      "ises": 1335,
      "pen": 1336,
      "treasure": 1337,
      "bath": 1338,
      "pers": 1339,
      "towards": 1340,
      "visit": 1341,
      "living": 1342,
      "lar": 1343,
      "flying": 1344,
      "Sure": 1345,
      "shared": 1346,
      "ames": 1347,
      "Okay": 1348,
      "candy": 1349,
      "owner": 1350,
      "party": 1351,
      "pieces": 1352,
      "promised": 1353,
      "mouth": 1354,
      "bigger": 1355,
      "bran": 1356,
      "grate": 1357,
      "field": 1358,
      "grateful": 1359,
      "Fl": 1360,
      "Mama": 1361,
      "dolls": 1362,
      "cup": 1363,
      "hor": 1364,
      "job": 1365,
      "everywhere": 1366,
      "moral": 1367,
      "fox": 1368,
      "broke": 1369,
      "board": 1370,
      "ps": 1371,
      "pur": 1372,
      "treat": 1373,
      "money": 1374,
      "thre": 1375,
      "snack": 1376,
      "faster": 1377,
      "Fluffy": 1378,
      "gif": 1379,
      "worried": 1380,
      "plant": 1381,
      "helping": 1382,
      "kis": 1383,
      "Mr": 1384,
      "mind": 1385,
      "bowl": 1386,
      "iet": 1387,
      "join": 1388,
      "chair": 1389,
      "ment": 1390,
      "doctor": 1391,
      "hes": 1392,
      "black": 1393,
      "ele": 1394,
      "lice": 1395,
      "such": 1396,
      "crying": 1397,
      "ich": 1398,
      "mix": 1399,
      "heav": 1400,
      "quiet": 1401,
      "wr": 1402,
      "blan": 1403,
      "answ": 1404,
      "reach": 1405,
      "dangerous": 1406,
      "scream": 1407,
      "belie": 1408,
      "colorful": 1409,
      "words": 1410,
      "smart": 1411,
      "explain": 1412,
      "twins": 1413,
      "dry": 1414,
      "rot": 1415,
      "slowly": 1416,
      "sign": 1417,
      "Just": 1418,
      "threw": 1419,
      "Hi": 1420,
      "dragon": 1421,
      "igg": 1422,
      "farmer": 1423,
      "ually": 1424,
      "magical": 1425,
      "dirty": 1426,
      "balloon": 1427,
      "feels": 1428,
      "swa": 1429,
      "cident": 1430,
      "Daddy": 1431,
      "ap": 1432,
      "des": 1433,
      "closed": 1434,
      "tower": 1435,
      "start": 1436,
      "river": 1437,
      "heavy": 1438,
      "cray": 1439,
      "accident": 1440,
      "chool": 1441,
      "swam": 1442,
      "str": 1443,
      "ourse": 1444,
      "monster": 1445,
      "school": 1446,
      "princess": 1447,
      "hoped": 1448,
      "bas": 1449,
      "eating": 1450,
      "stepped": 1451,
      "same": 1452,
      "lla": 1453,
      "Grandma": 1454,
      "stuck": 1455,
      "sc": 1456,
      "unch": 1457,
      "town": 1458,
      "win": 1459,
      "shar": 1460,
      "pow": 1461,
      "press": 1462,
      "phone": 1463,
      "ng": 1464,
      "button": 1465,
      "teac": 1466,
      "heal": 1467,
      "takes": 1468,
      "Mary": 1469,
      "paint": 1470,
      "Please": 1471,
      "wouldn": 1472,
      "fence": 1473,
      "pray": 1474,
      "wall": 1475,
      "bite": 1476,
      "round": 1477,
      "tent": 1478,
      "Jimmy": 1479,
      "hig": 1480,
      "ches": 1481,
      "assed": 1482,
      "comfor": 1483,
      "turns": 1484,
      "kno": 1485,
      "across": 1486,
      "pushed": 1487,
      "blanket": 1488,
      "ek": 1489,
      "Emma": 1490,
      "fairy": 1491,
      "swings": 1492,
      "without": 1493,
      "noises": 1494,
      "brown": 1495,
      "must": 1496,
      "past": 1497,
      "basket": 1498,
      "course": 1499,
      "ben": 1500,
      "lone": 1501,
      "Mum": 1502,
      "cy": 1503,
      "min": 1504,
      "today": 1505,
      "plane": 1506,
      "clapped": 1507,
      "stead": 1508,
      "welcome": 1509,
      "shine": 1510,
      "throw": 1511,
      "appeared": 1512,
      "upset": 1513,
      "lonely": 1514,
      "soup": 1515,
      "bee": 1516,
      "sea": 1517,
      "teacher": 1518,
      "believe": 1519,
      "iting": 1520,
      "wish": 1521,
      "wings": 1522,
      "hugs": 1523,
      "dropped": 1524,
      "gentle": 1525,
      "leg": 1526,
      "free": 1527,
      "adventures": 1528,
      "games": 1529,
      "shop": 1530,
      "Later": 1531,
      "har": 1532,
      "rub": 1533,
      "pper": 1534,
      "child": 1535,
      "Their": 1536,
      "well": 1537,
      "bble": 1538,
      "owl": 1539,
      "stood": 1540,
      "drove": 1541,
      "kne": 1542,
      "bring": 1543,
      "secre": 1544,
      "higher": 1545,
      "cheered": 1546,
      "di": 1547,
      "jour": 1548,
      "sang": 1549,
      "drink": 1550,
      "phant": 1551,
      "itch": 1552,
      "moved": 1553,
      "rocks": 1554,
      "explained": 1555,
      "naught": 1556,
      "cer": 1557,
      "jar": 1558,
      "happen": 1559,
      "Inside": 1560,
      "forget": 1561,
      "naughty": 1562,
      "Tweet": 1563,
      "trou": 1564,
      "though": 1565,
      "wise": 1566,
      "pull": 1567,
      "shoes": 1568,
      "lunch": 1569,
      "woke": 1570,
      "ventually": 1571,
      "ney": 1572,
      "sent": 1573,
      "elephant": 1574,
      "longer": 1575,
      "ntain": 1576,
      "su": 1577,
      "heart": 1578,
      "neck": 1579,
      "mine": 1580,
      "orange": 1581,
      "neigh": 1582,
      "late": 1583,
      "elly": 1584,
      "itting": 1585,
      "stories": 1586,
      "hit": 1587,
      "belong": 1588,
      "backyard": 1589,
      "oom": 1590,
      "caught": 1591,
      "apple": 1592,
      "My": 1593,
      "suddenly": 1594,
      "taking": 1595,
      "sick": 1596,
      "bucket": 1597,
      "ible": 1598,
      "comes": 1599,
      "Pe": 1600,
      "band": 1601,
      "ours": 1602,
      "ling": 1603,
      "pol": 1604,
      "bench": 1605,
      "pocket": 1606,
      "fused": 1607,
      "mil": 1608,
      "stars": 1609,
      "da": 1610,
      "pig": 1611,
      "val": 1612,
      "oun": 1613,
      "rainbow": 1614,
      "pil": 1615,
      "add": 1616,
      "young": 1617,
      "dist": 1618,
      "num": 1619,
      "driver": 1620,
      "juice": 1621,
      "branch": 1622,
      "along": 1623,
      "cal": 1624,
      "nearby": 1625,
      "ittens": 1626,
      "amp": 1627,
      "shook": 1628,
      "stone": 1629,
      "exploring": 1630,
      "fing": 1631,
      "seemed": 1632,
      "count": 1633,
      "secret": 1634,
      "idge": 1635,
      "Sammy": 1636,
      "Le": 1637,
      "erful": 1638,
      "shapes": 1639,
      "nose": 1640,
      "hello": 1641,
      "ese": 1642,
      "singing": 1643,
      "raid": 1644,
      "tiny": 1645,
      "afraid": 1646,
      "monkey": 1647,
      "nest": 1648,
      "kite": 1649,
      "busy": 1650,
      "mail": 1651,
      "ions": 1652,
      "cing": 1653,
      "part": 1654,
      "sco": 1655,
      "wondered": 1656,
      "Good": 1657,
      "pra": 1658,
      "relie": 1659,
      "quest": 1660,
      "lay": 1661,
      "coat": 1662,
      "carry": 1663,
      "accidentally": 1664,
      "covered": 1665,
      "cir": 1666,
      "push": 1667,
      "arms": 1668,
      "holding": 1669,
      "sounds": 1670,
      "How": 1671,
      "net": 1672,
      "loves": 1673,
      "ming": 1674,
      "egg": 1675,
      "thday": 1676,
      "cute": 1677,
      "letter": 1678,
      "Of": 1679,
      "fit": 1680,
      "ship": 1681,
      "gift": 1682,
      "gives": 1683,
      "ire": 1684,
      "bled": 1685,
      "body": 1686,
      "sitting": 1687,
      "street": 1688,
      "patient": 1689,
      "wra": 1690,
      "snowman": 1691,
      "au": 1692,
      "days": 1693,
      "milk": 1694,
      "gged": 1695,
      "brea": 1696,
      "ars": 1697,
      "cheese": 1698,
      "birthday": 1699,
      "craw": 1700,
      "hope": 1701,
      "storm": 1702,
      "shes": 1703,
      "live": 1704,
      "cozy": 1705,
      "forever": 1706,
      "imag": 1707,
      "boun": 1708,
      "peace": 1709,
      "laughing": 1710,
      "coun": 1711,
      "purple": 1712,
      "relieved": 1713,
      "life": 1714,
      "itten": 1715,
      "ughter": 1716,
      "inte": 1717,
      "sunny": 1718,
      "cow": 1719,
      "ier": 1720,
      "instead": 1721,
      "nothing": 1722,
      "pudd": 1723,
      "vel": 1724,
      "puzz": 1725,
      "interest": 1726,
      "mer": 1727,
      "ade": 1728,
      "Ted": 1729,
      "bread": 1730,
      "hu": 1731,
      "fan": 1732,
      "rope": 1733,
      "sli": 1734,
      "ugg": 1735,
      "promise": 1736,
      "wand": 1737,
      "itty": 1738,
      "daughter": 1739,
      "later": 1740,
      "Hey": 1741,
      "Mittens": 1742,
      "ian": 1743,
      "kick": 1744,
      "Jenny": 1745,
      "ase": 1746,
      "sunshine": 1747,
      "road": 1748,
      "eas": 1749,
      "lucky": 1750,
      "anyone": 1751,
      "crayons": 1752,
      "mach": 1753,
      "sug": 1754,
      "tun": 1755,
      "searched": 1756,
      "roar": 1757,
      "touc": 1758,
      "exciting": 1759,
      "sandw": 1760,
      "touched": 1761,
      "smiling": 1762,
      "meet": 1763,
      "huge": 1764,
      "irt": 1765,
      "zoom": 1766,
      "war": 1767,
      "ness": 1768,
      "ducks": 1769,
      "card": 1770,
      "danced": 1771,
      "pointed": 1772,
      "bru": 1773,
      "ize": 1774,
      "Sometimes": 1775,
      "act": 1776,
      "bottle": 1777,
      "roll": 1778,
      "pass": 1779,
      "cave": 1780,
      "nic": 1781,
      "sharp": 1782,
      "blem": 1783,
      "bought": 1784,
      "wash": 1785,
      "uni": 1786,
      "problem": 1787,
      "creature": 1788,
      "talked": 1789,
      "bush": 1790,
      "swimming": 1791,
      "comfortable": 1792,
      "journey": 1793,
      "smelled": 1794,
      "gest": 1795,
      "present": 1796,
      "With": 1797,
      "log": 1798,
      "watching": 1799,
      "snake": 1800,
      "att": 1801,
      "gigg": 1802,
      "gen": 1803,
      "tasty": 1804,
      "respe": 1805,
      "onto": 1806,
      "word": 1807,
      "grand": 1808,
      "rolled": 1809,
      "write": 1810,
      "isa": 1811,
      "trouble": 1812,
      "splash": 1813,
      "person": 1814,
      "colle": 1815,
      "healthy": 1816,
      "worm": 1817,
      "giant": 1818,
      "wide": 1819,
      "interesting": 1820,
      "coin": 1821,
      "clouds": 1822,
      "feather": 1823,
      "vill": 1824,
      "puts": 1825,
      "couch": 1826,
      "Where": 1827,
      "spid": 1828,
      "apples": 1829,
      "pract": 1830,
      "Are": 1831,
      "fron": 1832,
      "wheel": 1833,
      "neighbor": 1834,
      "dest": 1835,
      "lovely": 1836,
      "honey": 1837,
      "circle": 1838,
      "front": 1839,
      "Lisa": 1840,
      "pan": 1841,
      "goes": 1842,
      "respect": 1843,
      "spin": 1844,
      "miss": 1845,
      "faces": 1846,
      "pretended": 1847,
      "ned": 1848,
      "pile": 1849,
      "sack": 1850,
      "spoon": 1851,
      "izz": 1852,
      "foot": 1853,
      "path": 1854,
      "ladder": 1855,
      "shining": 1856,
      "ast": 1857,
      "knee": 1858,
      "organ": 1859,
      "suc": 1860,
      "clever": 1861,
      "tasted": 1862,
      "places": 1863,
      "fli": 1864,
      "hop": 1865,
      "slid": 1866,
      "Emily": 1867,
      "building": 1868,
      "oven": 1869,
      "teach": 1870,
      "eag": 1871,
      "inv": 1872,
      "screamed": 1873,
      "seek": 1874,
      "wild": 1875,
      "zoo": 1876,
      "asleep": 1877,
      "gently": 1878,
      "wave": 1879,
      "impress": 1880,
      "thin": 1881,
      "If": 1882,
      "stu": 1883,
      "helpful": 1884,
      "ching": 1885,
      "finish": 1886,
      "corn": 1887,
      "wearing": 1888,
      "tool": 1889,
      "Together": 1890,
      "fruit": 1891,
      "ife": 1892,
      "prote": 1893,
      "whole": 1894,
      "cean": 1895,
      "mud": 1896,
      "ocean": 1897,
      "uce": 1898,
      "vie": 1899,
      "lock": 1900,
      "which": 1901,
      "dirt": 1902,
      "picnic": 1903,
      "matter": 1904,
      "talking": 1905,
      "chocol": 1906,
      "myster": 1907,
      "forgive": 1908,
      "smell": 1909,
      "spotted": 1910,
      "berries": 1911,
      "drive": 1912,
      "spent": 1913,
      "gather": 1914,
      "os": 1915,
      "shelf": 1916,
      "barr": 1917,
      "Mummy": 1918,
      "embarr": 1919,
      "horse": 1920,
      "calm": 1921,
      "confused": 1922,
      "wom": 1923,
      "tomor": 1924,
      "tomorrow": 1925,
      "last": 1926,
      "spicy": 1927,
      "woman": 1928,
      "spider": 1929,
      "waiting": 1930,
      "answer": 1931,
      "Teddy": 1932,
      "shy": 1933,
      "songs": 1934,
      "fighting": 1935,
      "pill": 1936,
      "ones": 1937,
      "eth": 1938,
      "test": 1939,
      "cloth": 1940,
      "Peter": 1941,
      "step": 1942,
      "ased": 1943,
      "shr": 1944,
      "blew": 1945,
      "teeth": 1946,
      "Here": 1947,
      "corner": 1948,
      "furry": 1949,
      "seat": 1950,
      "chocolate": 1951,
      "mountain": 1952,
      "orm": 1953,
      "stair": 1954,
      "hiding": 1955,
      "Stop": 1956,
      "spit": 1957,
      "joke": 1958,
      "cord": 1959,
      "cookie": 1960,
      "den": 1961,
      "ipped": 1962,
      "tries": 1963,
      "feet": 1964,
      "bugs": 1965,
      "Re": 1966,
      "minut": 1967,
      "pour": 1968,
      "tea": 1969,
      "whenever": 1970,
      "kets": 1971,
      "smoo": 1972,
      "rank": 1973,
      "taste": 1974,
      "sol": 1975,
      "lace": 1976,
      "sne": 1977,
      "spray": 1978,
      "pool": 1979,
      "fixed": 1980,
      "trip": 1981,
      "Who": 1982,
      "tur": 1983,
      "getable": 1984,
      "While": 1985,
      "vegetable": 1986,
      "Rex": 1987,
      "puddle": 1988,
      "cannot": 1989,
      "village": 1990,
      "smooth": 1991,
      "ban": 1992,
      "rocket": 1993,
      "carrot": 1994,
      "tid": 1995,
      "pread": 1996,
      "balls": 1997,
      "puzzle": 1998,
      "embarrassed": 1999,
      "burn": 2000,
      "spread": 2001,
      "stri": 2002,
      "cele": 2003,
      "paw": 2004,
      "banan": 2005,
      "Jake": 2006,
      "bell": 2007,
      "hum": 2008,
      "hero": 2009,
      "shirt": 2010,
      "hears": 2011,
      "creative": 2012,
      "Kitty": 2013,
      "maybe": 2014,
      "swe": 2015,
      "barked": 2016,
      "emp": 2017,
      "fold": 2018,
      "necklace": 2019,
      "peaceful": 2020,
      "empty": 2021,
      "chick": 2022,
      "colour": 2023,
      "Fred": 2024,
      "eventually": 2025,
      "gy": 2026,
      "tro": 2027,
      "kitten": 2028,
      "bus": 2029,
      "bubble": 2030,
      "knocked": 2031,
      "Bo": 2032,
      "pizz": 2033,
      "œI": 2034,
      "ants": 2035,
      "gun": 2036,
      "seed": 2037,
      "missed": 2038,
      "shake": 2039,
      "trust": 2040,
      "Help": 2041,
      "celebr": 2042,
      "Little": 2043,
      "ten": 2044,
      "remind": 2045,
      "grew": 2046,
      "stret": 2047,
      "collect": 2048,
      "sticks": 2049,
      "tells": 2050,
      "tightly": 2051,
      "rude": 2052,
      "number": 2053,
      "ighed": 2054,
      "pop": 2055,
      "wore": 2056,
      "eager": 2057,
      "clear": 2058,
      "chased": 2059,
      "flut": 2060,
      "rots": 2061,
      "rag": 2062,
      "ungle": 2063,
      "kiss": 2064,
      "stir": 2065,
      "whistle": 2066,
      "jungle": 2067,
      "delight": 2068,
      "scre": 2069,
      "protect": 2070,
      "hang": 2071,
      "stairs": 2072,
      "lves": 2073,
      "meant": 2074,
      "large": 2075,
      "ee": 2076,
      "era": 2077,
      "Johnny": 2078,
      "tidy": 2079,
      "pizza": 2080,
      "pin": 2081,
      "tu": 2082,
      "ugly": 2083,
      "dec": 2084,
      "Leo": 2085,
      "Alice": 2086,
      "save": 2087,
      "carrots": 2088,
      "snacks": 2089,
      "umpy": 2090,
      "crab": 2091,
      "oin": 2092,
      "fre": 2093,
      "leaf": 2094,
      "sparkly": 2095,
      "ull": 2096,
      "hone": 2097,
      "glow": 2098,
      "res": 2099,
      "ending": 2100,
      "moon": 2101,
      "selfish": 2102,
      "TV": 2103,
      "mir": 2104,
      "robot": 2105,
      "nods": 2106,
      "aser": 2107,
      "hidden": 2108,
      "treats": 2109,
      "blow": 2110,
      "lemon": 2111,
      "sharing": 2112,
      "jumping": 2113,
      "pir": 2114,
      "cur": 2115,
      "adow": 2116,
      "carried": 2117,
      "Everywhere": 2118,
      "appoin": 2119,
      "string": 2120,
      "Ann": 2121,
      "packed": 2122,
      "tie": 2123,
      "meadow": 2124,
      "prince": 2125,
      "bers": 2126,
      "cage": 2127,
      "Even": 2128,
      "landed": 2129,
      "machine": 2130,
      "ity": 2131,
      "polite": 2132,
      "gray": 2133,
      "disappoin": 2134,
      "drew": 2135,
      "sleepy": 2136,
      "brush": 2137,
      "cted": 2138,
      "scarf": 2139,
      "honest": 2140,
      "frustr": 2141,
      "legs": 2142,
      "ail": 2143,
      "these": 2144,
      "gold": 2145,
      "sup": 2146,
      "cross": 2147,
      "shad": 2148,
      "sque": 2149,
      "ult": 2150,
      "orry": 2151,
      "feed": 2152,
      "group": 2153,
      "breath": 2154,
      "ator": 2155,
      "Me": 2156,
      "vous": 2157,
      "stra": 2158,
      "yelled": 2159,
      "spital": 2160,
      "line": 2161,
      "plate": 2162,
      "pillow": 2163,
      "El": 2164,
      "cries": 2165,
      "asha": 2166,
      "forward": 2167,
      "knowing": 2168,
      "bored": 2169,
      "hospital": 2170,
      "gas": 2171,
      "sour": 2172,
      "almost": 2173,
      "sheep": 2174,
      "fancy": 2175,
      "kin": 2176,
      "nut": 2177,
      "itter": 2178,
      "lown": 2179,
      "finger": 2180,
      "Br": 2181,
      "kn": 2182,
      "decor": 2183,
      "frustrated": 2184,
      "sandwich": 2185,
      "disappointed": 2186,
      "Sorry": 2187,
      "powerful": 2188,
      "vegetables": 2189,
      "Your": 2190,
      "standing": 2191,
      "cri": 2192,
      "cop": 2193,
      "pay": 2194,
      "spoil": 2195,
      "fil": 2196,
      "ony": 2197,
      "fear": 2198,
      "gate": 2199,
      "note": 2200,
      "deter": 2201,
      "clown": 2202,
      "fla": 2203,
      "towel": 2204,
      "cape": 2205,
      "mysterious": 2206,
      "gets": 2207,
      "nervous": 2208,
      "Sus": 2209,
      "block": 2210,
      "plants": 2211,
      "ashamed": 2212,
      "pri": 2213,
      "arage": 2214,
      "understood": 2215,
      "flies": 2216,
      "garage": 2217,
      "ruined": 2218,
      "sors": 2219,
      "sage": 2220,
      "Today": 2221,
      "glue": 2222,
      "wagged": 2223,
      "issors": 2224,
      "ird": 2225,
      "Give": 2226,
      "van": 2227,
      "espe": 2228,
      "police": 2229,
      "closet": 2230,
      "dancing": 2231,
      "saur": 2232,
      "scissors": 2233,
      "easy": 2234,
      "messy": 2235,
      "cially": 2236,
      "especially": 2237,
      "cand": 2238,
      "izzy": 2239,
      "fill": 2240,
      "coura": 2241,
      "eggs": 2242,
      "motor": 2243,
      "taught": 2244,
      "jewel": 2245,
      "kissed": 2246,
      "Bl": 2247,
      "dle": 2248,
      "hours": 2249,
      "jam": 2250,
      "mark": 2251,
      "tig": 2252,
      "stum": 2253,
      "medic": 2254,
      "passed": 2255,
      "twirl": 2256,
      "yourself": 2257,
      "flag": 2258,
      "bat": 2259,
      "poor": 2260,
      "ensive": 2261,
      "giggled": 2262,
      "Brown": 2263,
      "osaur": 2264,
      "known": 2265,
      "expensive": 2266,
      "Ch": 2267,
      "chest": 2268,
      "spla": 2269,
      "medicine": 2270,
      "spr": 2271,
      "waves": 2272,
      "stuff": 2273,
      "See": 2274,
      "ken": 2275,
      "iddle": 2276,
      "shore": 2277,
      "fake": 2278,
      "vase": 2279,
      "returned": 2280,
      "lif": 2281,
      "ignor": 2282,
      "fig": 2283,
      "saved": 2284,
      "tears": 2285,
      "drum": 2286,
      "fruits": 2287,
      "painting": 2288,
      "boys": 2289,
      "bark": 2290,
      "exam": 2291,
      "dinosaur": 2292,
      "generous": 2293,
      "minutes": 2294,
      "become": 2295,
      "ates": 2296,
      "hopping": 2297,
      "law": 2298,
      "case": 2299,
      "nod": 2300,
      "asking": 2301,
      "fridge": 2302,
      "sighed": 2303,
      "whisper": 2304,
      "rote": 2305,
      "Blue": 2306,
      "ual": 2307,
      "wrote": 2308,
      "change": 2309,
      "form": 2310,
      "working": 2311,
      "bul": 2312,
      "boring": 2313,
      "lead": 2314,
      "usual": 2315,
      "taken": 2316,
      "chew": 2317,
      "keeper": 2318,
      "grumpy": 2319,
      "mistake": 2320,
      "sailed": 2321,
      "week": 2322,
      "playground": 2323,
      "Tweety": 2324,
      "berry": 2325,
      "sweetie": 2326,
      "pleased": 2327,
      "bathroom": 2328,
      "mined": 2329,
      "ppo": 2330,
      "often": 2331,
      "success": 2332,
      "soar": 2333,
      "knife": 2334,
      "determined": 2335,
      "middle": 2336,
      "cto": 2337,
      "team": 2338,
      "rid": 2339,
      "tag": 2340,
      "class": 2341,
      "match": 2342,
      "boss": 2343,
      "check": 2344,
      "fluffy": 2345,
      "true": 2346,
      "drawing": 2347,
      "Susie": 2348,
      "drank": 2349,
      "lose": 2350,
      "moving": 2351,
      "Ella": 2352,
      "jelly": 2353,
      "shell": 2354,
      "answered": 2355,
      "knight": 2356,
      "dogs": 2357,
      "shows": 2358,
      "bake": 2359,
      "weak": 2360,
      "excite": 2361,
      "pace": 2362,
      "lit": 2363,
      "ina": 2364,
      "sold": 2365,
      "picks": 2366,
      "questions": 2367,
      "mummy": 2368,
      "smelly": 2369,
      "Mark": 2370,
      "hose": 2371,
      "soap": 2372,
      "mel": 2373,
      "Whe": 2374,
      "cher": 2375,
      "glass": 2376,
      "tiger": 2377,
      "wake": 2378,
      "father": 2379,
      "Mrs": 2380,
      "nel": 2381,
      "mic": 2382,
      "tub": 2383,
      "rad": 2384,
      "dep": 2385,
      "bedroom": 2386,
      "bridge": 2387,
      "mighty": 2388,
      "lying": 2389,
      "aged": 2390,
      "content": 2391,
      "excitement": 2392,
      "iness": 2393,
      "cleaned": 2394,
      "space": 2395,
      "hurts": 2396,
      "discovered": 2397,
      "Bella": 2398,
      "decide": 2399,
      "lazy": 2400,
      "Bobo": 2401,
      "micro": 2402,
      "ears": 2403,
      "gathered": 2404,
      "dish": 2405,
      "amond": 2406,
      "ete": 2407,
      "pair": 2408,
      "thankful": 2409,
      "imed": 2410,
      "Ow": 2411,
      "eld": 2412,
      "cam": 2413,
      "rela": 2414,
      "queen": 2415,
      "relax": 2416,
      "men": 2417,
      "suit": 2418,
      "distance": 2419,
      "dig": 2420,
      "sil": 2421,
      "skipped": 2422,
      "Mar": 2423,
      "wip": 2424,
      "disappeared": 2425,
      "feathers": 2426,
      "splashed": 2427,
      "Ne": 2428,
      "hi": 2429,
      "rough": 2430,
      "illi": 2431,
      "ating": 2432,
      "map": 2433,
      "walks": 2434,
      "diamond": 2435,
      "Pete": 2436,
      "gust": 2437,
      "dol": 2438,
      "famous": 2439,
      "borrow": 2440,
      "sugar": 2441,
      "eye": 2442,
      "licked": 2443,
      "vest": 2444,
      "boo": 2445,
      "allow": 2446,
      "order": 2447,
      "Well": 2448,
      "flash": 2449,
      "sight": 2450,
      "erpill": 2451,
      "caterpill": 2452,
      "depend": 2453,
      "tape": 2454,
      "horn": 2455,
      "tunnel": 2456,
      "ham": 2457,
      "calling": 2458,
      "flute": 2459,
      "ror": 2460,
      "locked": 2461,
      "gue": 2462,
      "inc": 2463,
      "chase": 2464,
      "crawled": 2465,
      "als": 2466,
      "goat": 2467,
      "smo": 2468,
      "stones": 2469,
      "tain": 2470,
      "runk": 2471,
      "balance": 2472,
      "lift": 2473,
      "kindness": 2474,
      "trucks": 2475,
      "banana": 2476,
      "aw": 2477,
      "cheerful": 2478,
      "lamp": 2479,
      "dolph": 2480,
      "Eventually": 2481,
      "record": 2482,
      "elder": 2483,
      "sell": 2484,
      "yours": 2485,
      "using": 2486,
      "falls": 2487,
      "grandpa": 2488,
      "acce": 2489,
      "crown": 2490,
      "giving": 2491,
      "rare": 2492,
      "toes": 2493,
      "unusual": 2494,
      "angel": 2495,
      "branches": 2496,
      "unique": 2497,
      "caterpillar": 2498,
      "smoke": 2499,
      "elderly": 2500,
      "yarn": 2501,
      "ilt": 2502,
      "wrapped": 2503,
      "organized": 2504,
      "bubbles": 2505,
      "bone": 2506,
      "fool": 2507,
      "breakfast": 2508,
      "son": 2509,
      "thick": 2510,
      "happening": 2511,
      "dependable": 2512,
      "incred": 2513,
      "End": 2514,
      "yal": 2515,
      "alous": 2516,
      "grown": 2517,
      "obed": 2518,
      "wis": 2519,
      "weal": 2520,
      "deer": 2521,
      "managed": 2522,
      "dreamed": 2523,
      "jealous": 2524,
      "impressed": 2525,
      "mirror": 2526,
      "bitter": 2527,
      "measure": 2528,
      "polog": 2529,
      "fine": 2530,
      "noisy": 2531,
      "coins": 2532,
      "brilli": 2533,
      "choose": 2534,
      "cart": 2535,
      "adventur": 2536,
      "pointing": 2537,
      "apolog": 2538,
      "cab": 2539,
      "ler": 2540,
      "scare": 2541,
      "toug": 2542,
      "market": 2543,
      "colourful": 2544,
      "lifted": 2545,
      "edge": 2546,
      "juicy": 2547,
      "dizzy": 2548,
      "once": 2549,
      "selves": 2550,
      "moms": 2551,
      "needs": 2552,
      "offered": 2553,
      "safely": 2554,
      "obedient": 2555,
      "brilliant": 2556,
      "mes": 2557,
      "harm": 2558,
      "mixed": 2559,
      "adventurous": 2560,
      "grace": 2561,
      "tom": 2562,
      "lean": 2563,
      "chang": 2564,
      "bottom": 2565,
      "cient": 2566,
      "swan": 2567,
      "squee": 2568,
      "foolish": 2569,
      "four": 2570,
      "excla": 2571,
      "Letâ": 2572,
      "comple": 2573,
      "laughs": 2574,
      "uggled": 2575,
      "cabin": 2576,
      "wolf": 2577,
      "boxes": 2578,
      "louder": 2579,
      "incredible": 2580,
      "exclaimed": 2581,
      "lid": 2582,
      "loyal": 2583,
      "Pau": 2584,
      "orn": 2585,
      "pee": 2586,
      "twig": 2587,
      "frown": 2588,
      "added": 2589,
      "tough": 2590,
      "Ducky": 2591,
      "Ho": 2592,
      "bags": 2593,
      "trunk": 2594,
      "rich": 2595,
      "rubbed": 2596,
      "suggest": 2597,
      "cro": 2598,
      "hats": 2599,
      "agree": 2600,
      "?\".": 2601,
      "slipped": 2602,
      "figure": 2603,
      "Dan": 2604,
      "Lo": 2605,
      "ipe": 2606,
      "ti": 2607,
      "tools": 2608,
      "anut": 2609,
      "Bobby": 2610,
      "Nemo": 2611,
      "barn": 2612,
      "gem": 2613,
      "ext": 2614,
      "tele": 2615,
      "cleaning": 2616,
      "Grand": 2617,
      "scr": 2618,
      "mole": 2619,
      "born": 2620,
      "wealthy": 2621,
      "Next": 2622,
      "bb": 2623,
      "lly": 2624,
      "nur": 2625,
      "movie": 2626,
      "epend": 2627,
      "useful": 2628,
      "sunflower": 2629,
      "crayon": 2630,
      "cil": 2631,
      "stru": 2632,
      "shells": 2633,
      "extra": 2634,
      "against": 2635,
      "circles": 2636,
      "libr": 2637,
      "buttons": 2638,
      "zed": 2639,
      "walls": 2640,
      "bushes": 2641,
      "loudly": 2642,
      "port": 2643,
      "wing": 2644,
      "terri": 2645,
      "realised": 2646,
      "stronger": 2647,
      "dreams": 2648,
      "belonged": 2649,
      "Will": 2650,
      "wagon": 2651,
      "ature": 2652,
      "fresh": 2653,
      "graceful": 2654,
      "sca": 2655,
      "independ": 2656,
      "balloons": 2657,
      "search": 2658,
      "wha": 2659,
      "island": 2660,
      "helps": 2661,
      "sounded": 2662,
      "clap": 2663,
      "counted": 2664,
      "Ale": 2665,
      "happiness": 2666,
      "office": 2667,
      "Rose": 2668,
      "ga": 2669,
      "ero": 2670,
      "fork": 2671,
      "bossy": 2672,
      "fic": 2673,
      "knows": 2674,
      "pencil": 2675,
      "stub": 2676,
      "peanut": 2677,
      "jog": 2678,
      "guit": 2679,
      "Whenever": 2680,
      "gum": 2681,
      "sword": 2682,
      "houses": 2683,
      "painted": 2684,
      "stream": 2685,
      "ination": 2686,
      "lope": 2687,
      "shark": 2688,
      "St": 2689,
      "vide": 2690,
      "diffic": 2691,
      "means": 2692,
      "turtle": 2693,
      "camera": 2694,
      "difficult": 2695,
      "rh": 2696,
      "ountain": 2697,
      "ert": 2698,
      "nosy": 2699,
      "notice": 2700,
      "roof": 2701,
      "ately": 2702,
      "lights": 2703,
      "crack": 2704,
      "fountain": 2705,
      "tank": 2706,
      "weird": 2707,
      "thoughtful": 2708,
      "seeds": 2709,
      "pirate": 2710,
      "independent": 2711,
      "gra": 2712,
      "fier": 2713,
      "saying": 2714,
      "numbers": 2715,
      "screen": 2716,
      "batter": 2717,
      "Dave": 2718,
      "sauce": 2719,
      "skin": 2720,
      "spun": 2721,
      "favour": 2722,
      "harder": 2723,
      "spilled": 2724,
      "bounce": 2725,
      "invited": 2726,
      "stubborn": 2727,
      "Red": 2728,
      "cact": 2729,
      "desk": 2730,
      "tti": 2731,
      "adm": 2732,
      "liz": 2733,
      "cards": 2734,
      "learning": 2735,
      "courage": 2736,
      "cane": 2737,
      "built": 2738,
      "smaller": 2739,
      "sof": 2740,
      "hetti": 2741,
      "aghetti": 2742,
      "stove": 2743,
      "picking": 2744,
      "enjoying": 2745,
      "spoiled": 2746,
      "guitar": 2747,
      "favourite": 2748,
      "fat": 2749,
      "already": 2750,
      "bean": 2751,
      "whale": 2752,
      "enve": 2753,
      "spaghetti": 2754,
      "fierce": 2755,
      "aid": 2756,
      "vet": 2757,
      "scrat": 2758,
      "reli": 2759,
      "nurse": 2760,
      "Alex": 2761,
      "dove": 2762,
      "solve": 2763,
      "Paul": 2764,
      "lizard": 2765,
      "upid": 2766,
      "stops": 2767,
      "Grandpa": 2768,
      "ancient": 2769,
      "fright": 2770,
      "bull": 2771,
      "tummy": 2772,
      "joined": 2773,
      "poured": 2774,
      "reliable": 2775,
      "Mil": 2776,
      "dull": 2777,
      "ges": 2778,
      "seem": 2779,
      "compet": 2780,
      "practice": 2781,
      "straw": 2782,
      "escape": 2783,
      "rode": 2784,
      "post": 2785,
      "showing": 2786,
      "compass": 2787,
      "Sandy": 2788,
      "bs": 2789,
      "cone": 2790,
      "bloom": 2791,
      "fingers": 2792,
      "bump": 2793,
      "cudd": 2794,
      "dough": 2795,
      "pal": 2796,
      "arrow": 2797,
      "stupid": 2798,
      "gular": 2799,
      "barber": 2800,
      "cactus": 2801,
      "competit": 2802,
      "Al": 2803,
      "regular": 2804,
      "orig": 2805,
      "umsy": 2806,
      "boats": 2807,
      "stickers": 2808,
      "brothers": 2809,
      "pump": 2810,
      "inal": 2811,
      "pepper": 2812,
      "valu": 2813,
      "ines": 2814,
      "half": 2815,
      "marble": 2816,
      "envelope": 2817,
      "thirst": 2818,
      "hun": 2819,
      "rug": 2820,
      "salad": 2821,
      "coll": 2822,
      "parrot": 2823,
      "aced": 2824,
      "wrap": 2825,
      "kicked": 2826,
      "hay": 2827,
      "trum": 2828,
      "guard": 2829,
      "dreaming": 2830,
      "original": 2831,
      "zip": 2832,
      "explored": 2833,
      "snif": 2834,
      "chicken": 2835,
      "stumbled": 2836,
      "city": 2837,
      "successful": 2838,
      "yet": 2839,
      "meal": 2840,
      "birdie": 2841,
      "chose": 2842,
      "admired": 2843,
      "Kim": 2844,
      "cate": 2845,
      "bove": 2846,
      "news": 2847,
      "clumsy": 2848,
      "beak": 2849,
      "Ellie": 2850,
      "terrible": 2851,
      "above": 2852,
      "dge": 2853,
      "norm": 2854,
      "keys": 2855,
      "ured": 2856,
      "Joey": 2857,
      "changed": 2858,
      "vice": 2859,
      "kinds": 2860,
      "sticker": 2861,
      "thirsty": 2862,
      "frag": 2863,
      "jac": 2864,
      "shape": 2865,
      "study": 2866,
      "aunt": 2867,
      "bees": 2868,
      "hoop": 2869,
      "themselves": 2870,
      "inde": 2871,
      "nail": 2872,
      "cheer": 2873,
      "searching": 2874,
      "design": 2875,
      "beet": 2876,
      "earth": 2877,
      "early": 2878,
      "leaving": 2879,
      "wiped": 2880,
      "compassion": 2881,
      "valuable": 2882,
      "pants": 2883,
      "clay": 2884,
      "delicate": 2885,
      "print": 2886,
      "dom": 2887,
      "stage": 2888,
      "ado": 2889,
      "chir": 2890,
      "cap": 2891,
      "rushed": 2892,
      "cture": 2893,
      "normal": 2894,
      "est": 2895,
      "playful": 2896,
      "dead": 2897,
      "serious": 2898,
      "penny": 2899,
      "slides": 2900,
      "suggested": 2901,
      "frightened": 2902,
      "trumpet": 2903,
      "fragile": 2904,
      "ended": 2905,
      "shone": 2906,
      "pebble": 2907,
      "tooth": 2908,
      "excitedly": 2909,
      "snee": 2910,
      "hippo": 2911,
      "orge": 2912,
      "peeked": 2913,
      "Ju": 2914,
      "toma": 2915,
      "those": 2916,
      "cereal": 2917,
      "opens": 2918,
      "yell": 2919,
      "view": 2920,
      "ordin": 2921,
      "raced": 2922,
      "comb": 2923,
      "counting": 2924,
      "ordinary": 2925,
      "Polly": 2926,
      "salt": 2927,
      "doesn": 2928,
      "march": 2929,
      "Bye": 2930,
      "Mandy": 2931,
      "Sop": 2932,
      "Would": 2933,
      "eng": 2934,
      "asses": 2935,
      "finding": 2936,
      "flex": 2937,
      "cooking": 2938,
      "flashlight": 2939,
      "Soph": 2940,
      "ffle": 2941,
      "gir": 2942,
      "goose": 2943,
      "names": 2944,
      "careless": 2945,
      "pale": 2946,
      "travel": 2947,
      "imagined": 2948,
      "destro": 2949,
      "reminded": 2950,
      "whispered": 2951,
      "ither": 2952,
      "rat": 2953,
      "env": 2954,
      "enorm": 2955,
      "forth": 2956,
      "charm": 2957,
      "brightly": 2958,
      "pasta": 2959,
      "warned": 2960,
      "destroy": 2961,
      "sses": 2962,
      "intell": 2963,
      "washed": 2964,
      "belt": 2965,
      "serve": 2966,
      "missing": 2967,
      "power": 2968,
      "enormous": 2969,
      "intellig": 2970,
      "Ge": 2971,
      "iver": 2972,
      "hairy": 2973,
      "stranger": 2974,
      "humble": 2975,
      "toast": 2976,
      "noon": 2977,
      "discover": 2978,
      "guil": 2979,
      "driving": 2980,
      "sailor": 2981,
      "delighted": 2982,
      "ingred": 2983,
      "telling": 2984,
      "gasped": 2985,
      "guilty": 2986,
      "ingredient": 2987,
      "aroo": 2988,
      "angaroo": 2989,
      "steal": 2990,
      "base": 2991,
      "patch": 2992,
      "kangaroo": 2993,
      "metal": 2994,
      "handle": 2995,
      "flexible": 2996,
      "unknown": 2997,
      "robe": 2998,
      "host": 2999,
      "rules": 3000,
      "magnet": 3001,
      "trash": 3002,
      "square": 3003,
      "sleeping": 3004,
      "advice": 3005,
      "proudly": 3006,
      "nicely": 3007,
      "troph": 3008,
      "hammer": 3009,
      "scale": 3010,
      "ingredients": 3011,
      "fed": 3012,
      "tied": 3013,
      "thunder": 3014,
      "uncomfortable": 3015,
      "tered": 3016,
      "coco": 3017,
      "popu": 3018,
      "popular": 3019,
      "lli": 3020,
      "yo": 3021,
      "return": 3022,
      "isted": 3023,
      "cush": 3024,
      "deliver": 3025,
      "beetle": 3026,
      "avo": 3027,
      "ino": 3028,
      "hook": 3029,
      "pota": 3030,
      "butterflies": 3031,
      "holds": 3032,
      "Toby": 3033,
      "polish": 3034,
      "waffle": 3035,
      "rice": 3036,
      "starts": 3037,
      "skip": 3038,
      "flour": 3039,
      "whist": 3040,
      "Tweetie": 3041,
      "pige": 3042,
      "question": 3043,
      "charming": 3044,
      "George": 3045,
      "Sm": 3046,
      "pho": 3047,
      "arian": 3048,
      "fee": 3049,
      "umbre": 3050,
      "memor": 3051,
      "wander": 3052,
      "celebrate": 3053,
      "twirled": 3054,
      "hunter": 3055,
      "photo": 3056,
      "chas": 3057,
      "biggest": 3058,
      "tern": 3059,
      "cakes": 3060,
      "attic": 3061,
      "dolphin": 3062,
      "sofa": 3063,
      "ffin": 3064,
      "nature": 3065,
      "ray": 3066,
      "offee": 3067,
      "uncle": 3068,
      "uring": 3069,
      "brace": 3070,
      "Brownie": 3071,
      "intelligent": 3072,
      "cco": 3073,
      "glo": 3074,
      "scat": 3075,
      "anda": 3076,
      "shiver": 3077,
      "illa": 3078,
      "cod": 3079,
      "Andy": 3080,
      "bald": 3081,
      "crazy": 3082,
      "popcorn": 3083,
      "vi": 3084,
      "tem": 3085,
      "disgust": 3086,
      "shocked": 3087,
      "wheat": 3088,
      "complete": 3089,
      "Lola": 3090,
      "chasing": 3091,
      "zi": 3092,
      "load": 3093,
      "clock": 3094,
      "wheels": 3095,
      "super": 3096,
      "melon": 3097,
      "sink": 3098,
      "cricket": 3099,
      "collar": 3100,
      "Snow": 3101,
      "ghost": 3102,
      "rise": 3103,
      "friendship": 3104,
      "windows": 3105,
      "ject": 3106,
      "sparkled": 3107,
      "persist": 3108,
      "cupboard": 3109,
      "thinking": 3110,
      "Grace": 3111,
      "ugged": 3112,
      "iches": 3113,
      "speed": 3114,
      "sorts": 3115,
      "pattern": 3116,
      "impressive": 3117,
      "candle": 3118,
      "reci": 3119,
      "truth": 3120,
      "sandwiches": 3121,
      "library": 3122,
      "compassionate": 3123,
      "trophy": 3124,
      "lim": 3125,
      "erry": 3126,
      "attra": 3127,
      "!\".": 3128,
      "cycle": 3129,
      "prize": 3130,
      "Millie": 3131,
      "Budd": 3132,
      "vol": 3133,
      "growing": 3134,
      "pilot": 3135,
      "Buddy": 3136,
      "yaw": 3137,
      "jumps": 3138,
      "doors": 3139,
      "gling": 3140,
      "crocod": 3141,
      "coffee": 3142,
      "dug": 3143,
      "sudden": 3144,
      "lives": 3145,
      "carrying": 3146,
      "laser": 3147,
      "lolli": 3148,
      "impat": 3149,
      "bracelet": 3150,
      "pup": 3151,
      "refused": 3152,
      "shroom": 3153,
      "carpet": 3154,
      "moder": 3155,
      "spend": 3156,
      "snuggled": 3157,
      "towers": 3158,
      "knock": 3159,
      "create": 3160,
      "ctive": 3161,
      "allowed": 3162,
      "cano": 3163,
      "trap": 3164,
      "gging": 3165,
      "pengu": 3166,
      "impatient": 3167,
      "hive": 3168,
      "main": 3169,
      "witch": 3170,
      "beep": 3171,
      "hurry": 3172,
      "torn": 3173,
      "ations": 3174,
      "glasses": 3175,
      "cocoa": 3176,
      "Mike": 3177,
      "five": 3178,
      "anx": 3179,
      "leo": 3180,
      "jolly": 3181,
      "cheap": 3182,
      "spring": 3183,
      "stat": 3184,
      "trick": 3185,
      "nuts": 3186,
      "ckets": 3187,
      "pony": 3188,
      "aches": 3189,
      "tray": 3190,
      "spoke": 3191,
      "spinning": 3192,
      "shadow": 3193,
      "oat": 3194,
      "wire": 3195,
      "coo": 3196,
      "message": 3197,
      "persistent": 3198,
      "modern": 3199,
      "bent": 3200,
      "jug": 3201,
      "kers": 3202,
      "tire": 3203,
      "œWhat": 3204,
      "reinde": 3205,
      "remain": 3206,
      "eraser": 3207,
      "ages": 3208,
      "mushroom": 3209,
      "split": 3210,
      "disgusting": 3211,
      "shield": 3212,
      "axe": 3213,
      "crow": 3214,
      "harmless": 3215,
      "anxious": 3216,
      "Did": 3217,
      "Whis": 3218,
      "Yay": 3219,
      "rece": 3220,
      "shut": 3221,
      "papers": 3222,
      "sport": 3223,
      "brighter": 3224,
      "pretending": 3225,
      "letters": 3226,
      "film": 3227,
      "Smith": 3228,
      "umbrella": 3229,
      "Flo": 3230,
      "œIt": 3231,
      "behave": 3232,
      "seal": 3233,
      "sock": 3234,
      "forgave": 3235,
      "shoe": 3236,
      "drop": 3237,
      "envious": 3238,
      "reindeer": 3239,
      "Or": 3240,
      "alert": 3241,
      "iron": 3242,
      "neat": 3243,
      "placed": 3244,
      "fort": 3245,
      "deaf": 3246,
      "math": 3247,
      "cooler": 3248,
      "given": 3249,
      "steps": 3250,
      "fis": 3251,
      "station": 3252,
      "carto": 3253,
      "fireman": 3254,
      "distant": 3255,
      "pumpkin": 3256,
      "volcano": 3257,
      "dust": 3258,
      "oy": 3259,
      "tic": 3260,
      "repe": 3261,
      "muffin": 3262,
      "scoo": 3263,
      "leopar": 3264,
      "œLetâ": 3265,
      "hall": 3266,
      "stal": 3267,
      "reading": 3268,
      "shoot": 3269,
      "jacket": 3270,
      "camp": 3271,
      "œThat": 3272,
      "holes": 3273,
      "drawer": 3274,
      "silver": 3275,
      "wishes": 3276,
      "aur": 3277,
      "parade": 3278,
      "perform": 3279,
      "restaur": 3280,
      "miser": 3281,
      "guess": 3282,
      "planet": 3283,
      "Ros": 3284,
      "bel": 3285,
      "cats": 3286,
      "older": 3287,
      "respectful": 3288,
      "tube": 3289,
      "ignorant": 3290,
      "pigeon": 3291,
      "miserable": 3292,
      "Rosie": 3293,
      "may": 3294,
      "uzz": 3295,
      "stack": 3296,
      "mop": 3297,
      "backpack": 3298,
      "acorn": 3299,
      "afternoon": 3300,
      "practiced": 3301,
      "Pa": 3302,
      "ahead": 3303,
      "cli": 3304,
      "por": 3305,
      "theater": 3306,
      "sadly": 3307,
      "badly": 3308,
      "reef": 3309,
      "treasures": 3310,
      "shrimp": 3311,
      "cran": 3312,
      "ceed": 3313,
      "chance": 3314,
      "anyway": 3315,
      "painter": 3316,
      "gifted": 3317,
      "troubled": 3318,
      "restaurant": 3319,
      "itself": 3320,
      "rose": 3321,
      "anywhere": 3322,
      "handed": 3323,
      "needle": 3324,
      "beauty": 3325,
      "tricks": 3326,
      "Before": 3327,
      "attractive": 3328,
      "scooter": 3329,
      "ener": 3330,
      "These": 3331,
      "verse": 3332,
      "pulls": 3333,
      "sym": 3334,
      "crawl": 3335,
      "stretched": 3336,
      "ded": 3337,
      "thus": 3338,
      "golf": 3339,
      "meow": 3340,
      "restless": 3341,
      "cushion": 3342,
      "Whiskers": 3343,
      "Bunny": 3344,
      "Is": 3345,
      "sheet": 3346,
      "pus": 3347,
      "giggle": 3348,
      "gloom": 3349,
      "octo": 3350,
      "scold": 3351,
      "ince": 3352,
      "enthus": 3353,
      "leton": 3354,
      "keleton": 3355,
      "track": 3356,
      "bathtub": 3357,
      "shopkeeper": 3358,
      "value": 3359,
      "crocodile": 3360,
      "octopus": 3361,
      "helmet": 3362,
      "impro": 3363,
      "shouts": 3364,
      "sity": 3365,
      "roared": 3366,
      "sweater": 3367,
      "suppl": 3368,
      "inocer": 3369,
      "crane": 3370,
      "symbo": 3371,
      "arry": 3372,
      "sty": 3373,
      "lions": 3374,
      "hood": 3375,
      "listening": 3376,
      "purse": 3377,
      "scoop": 3378,
      "cows": 3379,
      "succeed": 3380,
      "motorcycle": 3381,
      "symbol": 3382,
      "bri": 3383,
      "gn": 3384,
      "mill": 3385,
      "pushes": 3386,
      "visited": 3387,
      "napkin": 3388,
      "harsh": 3389,
      "bandage": 3390,
      "mailbox": 3391,
      "resist": 3392,
      "curtain": 3393,
      "Sophie": 3394,
      "either": 3395,
      "clu": 3396,
      "swinging": 3397,
      "affe": 3398,
      "football": 3399,
      "decorate": 3400,
      "Snowy": 3401,
      "inoceros": 3402,
      "Bill": 3403,
      "gor": 3404,
      "helpless": 3405,
      "Everything": 3406,
      "dancer": 3407,
      "package": 3408,
      "Cl": 3409,
      "rend": 3410,
      "goal": 3411,
      "dishes": 3412,
      "icycle": 3413,
      "neighb": 3414,
      "Annie": 3415,
      "fearful": 3416,
      "giraffe": 3417,
      "bin": 3418,
      "thie": 3419,
      "pear": 3420,
      "nowhere": 3421,
      "tap": 3422,
      "couldnâ": 3423,
      "checked": 3424,
      "tripped": 3425,
      "triang": 3426,
      "country": 3427,
      "human": 3428,
      "microphone": 3429,
      "bicycle": 3430,
      "glove": 3431,
      "send": 3432,
      "reco": 3433,
      "ador": 3434,
      "unk": 3435,
      "further": 3436,
      "avail": 3437,
      "pastel": 3438,
      "stirred": 3439,
      "rhinoceros": 3440,
      "gloomy": 3441,
      "mug": 3442,
      "œYes": 3443,
      "peach": 3444,
      "comput": 3445,
      "works": 3446,
      "supp": 3447,
      "bounced": 3448,
      "creatures": 3449,
      "competitive": 3450,
      "leopard": 3451,
      "size": 3452,
      "hedge": 3453,
      "pressed": 3454,
      "jokes": 3455,
      "riding": 3456,
      "gorilla": 3457,
      "knot": 3458,
      "skeleton": 3459,
      "vine": 3460,
      "seum": 3461,
      "peek": 3462,
      "museum": 3463,
      "tear": 3464,
      "ience": 3465,
      "jet": 3466,
      "modest": 3467,
      "stared": 3468,
      "pole": 3469,
      "finds": 3470,
      "trail": 3471,
      "journ": 3472,
      "available": 3473,
      "resc": 3474,
      "cond": 3475,
      "climbing": 3476,
      "clapping": 3477,
      "organize": 3478,
      "notebook": 3479,
      "Maria": 3480,
      "recogn": 3481,
      "rescue": 3482,
      "mask": 3483,
      "otter": 3484,
      "yach": 3485,
      "thread": 3486,
      "nobody": 3487,
      "wever": 3488,
      "exper": 3489,
      "point": 3490,
      "rolling": 3491,
      "stuffed": 3492,
      "boots": 3493,
      "aled": 3494,
      "starting": 3495,
      "switch": 3496,
      "lightning": 3497,
      "sandbox": 3498,
      "castles": 3499,
      "desser": 3500,
      "basketball": 3501,
      "turkey": 3502,
      "frowned": 3503,
      "Jerry": 3504,
      "gain": 3505,
      "reward": 3506,
      "ley": 3507,
      "laun": 3508,
      "drops": 3509,
      "strich": 3510,
      "adorable": 3511,
      "Bear": 3512,
      "Pat": 3513,
      "gs": 3514,
      "pun": 3515,
      "stamp": 3516,
      "raven": 3517,
      "cob": 3518,
      "putting": 3519,
      "drawings": 3520,
      "squash": 3521,
      "distur": 3522,
      "filthy": 3523,
      "barks": 3524,
      "yacht": 3525,
      "tion": 3526,
      "task": 3527,
      "ilet": 3528,
      "raft": 3529,
      "melt": 3530,
      "porch": 3531,
      "journal": 3532,
      "mild": 3533,
      "panda": 3534,
      "toilet": 3535,
      "chan": 3536,
      "hopes": 3537,
      "surrend": 3538,
      "trains": 3539,
      "paws": 3540,
      "zipper": 3541,
      "dessert": 3542,
      "hut": 3543,
      "edy": 3544,
      "bet": 3545,
      "shaking": 3546,
      "barking": 3547,
      "bikes": 3548,
      "statue": 3549,
      "laundry": 3550,
      "Sp": 3551,
      "erc": 3552,
      "iss": 3553,
      "stic": 3554,
      "kayak": 3555,
      "cups": 3556,
      "engine": 3557,
      "ccoli": 3558,
      "ills": 3559,
      "learnt": 3560,
      "powder": 3561,
      "mission": 3562,
      "lollipop": 3563,
      "Co": 3564,
      "aff": 3565,
      "inking": 3566,
      "veil": 3567,
      "somewhere": 3568,
      "sort": 3569,
      "quite": 3570,
      "sunset": 3571,
      "complain": 3572,
      "crystal": 3573,
      "monkeys": 3574,
      "twist": 3575,
      "gym": 3576,
      "pian": 3577,
      "sle": 3578,
      "leash": 3579,
      "appreci": 3580,
      "frame": 3581,
      "danger": 3582,
      "pushing": 3583,
      "cooked": 3584,
      "Ru": 3585,
      "weather": 3586,
      "hadn": 3587,
      "maze": 3588,
      "shakes": 3589,
      "lery": 3590,
      "thief": 3591,
      "Kate": 3592,
      "aked": 3593,
      "tory": 3594,
      "celery": 3595,
      "exerc": 3596,
      "ucked": 3597,
      "colours": 3598,
      "appl": 3599,
      "Ro": 3600,
      "Rob": 3601,
      "Un": 3602,
      "unlock": 3603,
      "speak": 3604,
      "broccoli": 3605,
      "softly": 3606,
      "frogs": 3607,
      "blowing": 3608,
      "fisher": 3609,
      "chanic": 3610,
      "piano": 3611,
      "ckey": 3612,
      "ribb": 3613,
      "ween": 3614,
      "chim": 3615,
      "mechanic": 3616,
      "Because": 3617,
      "tuna": 3618,
      "Hen": 3619,
      "Po": 3620,
      "Tr": 3621,
      "sir": 3622,
      "resp": 3623,
      "weep": 3624,
      "chub": 3625,
      "mule": 3626,
      "wool": 3627,
      "counter": 3628,
      "shade": 3629,
      "Henry": 3630,
      "tick": 3631,
      "happier": 3632,
      "quar": 3633,
      "club": 3634,
      "spir": 3635,
      "grabs": 3636,
      "closely": 3637,
      "hoping": 3638,
      "chubby": 3639,
      "James": 3640,
      "pit": 3641,
      "une": 3642,
      "vator": 3643,
      "admi": 3644,
      "enter": 3645,
      "hockey": 3646,
      "imagine": 3647,
      "cabinet": 3648,
      "avoc": 3649,
      "Papa": 3650,
      "Bun": 3651,
      "dive": 3652,
      "ison": 3653,
      "shoo": 3654,
      "thanks": 3655,
      "elevator": 3656,
      "chickens": 3657,
      "bur": 3658,
      "zzy": 3659,
      "inclu": 3660,
      "sting": 3661,
      "unhappy": 3662,
      "iest": 3663,
      "barrel": 3664,
      "lands": 3665,
      "breaks": 3666,
      "computer": 3667,
      "azz": 3668,
      "ummer": 3669,
      "Thanks": 3670,
      "feelings": 3671,
      "sneak": 3672,
      "ath": 3673,
      "dar": 3674,
      "pas": 3675,
      "raining": 3676,
      "airport": 3677,
      "marched": 3678,
      "admire": 3679,
      "Jess": 3680,
      "pted": 3681,
      "wife": 3682,
      "separ": 3683,
      "meas": 3684,
      "cheek": 3685,
      "baseball": 3686,
      "superhero": 3687,
      "chimney": 3688,
      "Kat": 3689,
      "ccer": 3690,
      "ostrich": 3691,
      "soccer": 3692,
      "player": 3693,
      "facto": 3694,
      "wallet": 3695,
      "object": 3696,
      "mixer": 3697,
      "burned": 3698,
      "accept": 3699,
      "Tony": 3700,
      "kitty": 3701,
      "umber": 3702,
      "prune": 3703,
      "spell": 3704,
      "iastic": 3705,
      "throws": 3706,
      "stretch": 3707,
      "enthusiastic": 3708,
      "support": 3709,
      "fisherman": 3710,
      "factory": 3711,
      "€“": 3712,
      "swee": 3713,
      "soldier": 3714,
      "apologized": 3715,
      "triangle": 3716,
      "gro": 3717,
      "lu": 3718,
      "luck": 3719,
      "shel": 3720,
      "comet": 3721,
      "evening": 3722,
      "chain": 3723,
      "smells": 3724,
      "ppery": 3725,
      "meeting": 3726,
      "zoomed": 3727,
      "astic": 3728,
      "Char": 3729,
      "lang": 3730,
      "short": 3731,
      "meat": 3732,
      "comed": 3733,
      "welcomed": 3734,
      "haircut": 3735,
      "falling": 3736,
      "slippery": 3737,
      "langu": 3738,
      "Baby": 3739,
      "weigh": 3740,
      "trem": 3741,
      "swung": 3742,
      "bananas": 3743,
      "ws": 3744,
      "intro": 3745,
      "inarian": 3746,
      "onion": 3747,
      "terinarian": 3748,
      "Lee": 3749,
      "shelter": 3750,
      "introd": 3751,
      "died": 3752,
      "mama": 3753,
      "iling": 3754,
      "veterinarian": 3755,
      "unpack": 3756,
      "soil": 3757,
      "boot": 3758,
      "paid": 3759,
      "comm": 3760,
      "scope": 3761,
      "cardboard": 3762,
      "crib": 3763,
      "bulb": 3764,
      "classroom": 3765,
      "grapes": 3766,
      "..": 3767,
      "bits": 3768,
      "oil": 3769,
      "tip": 3770,
      "vroom": 3771,
      "igator": 3772,
      "bears": 3773,
      "armchair": 3774,
      "ggy": 3775,
      "stume": 3776,
      "radish": 3777,
      "energy": 3778,
      "Bet": 3779,
      "repair": 3780,
      "petal": 3781,
      "costume": 3782,
      "shouldn": 3783,
      "cube": 3784,
      "parent": 3785,
      "judge": 3786,
      "diary": 3787,
      "belongs": 3788,
      "pine": 3789,
      "pipe": 3790,
      "si": 3791,
      "opera": 3792,
      "ache": 3793,
      "lively": 3794,
      "imagination": 3795,
      "enny": 3796,
      "crash": 3797,
      "marry": 3798,
      "leaned": 3799,
      "telephone": 3800,
      "spirit": 3801,
      "God": 3802,
      "gie": 3803,
      "Clara": 3804,
      "theart": 3805,
      "reve": 3806,
      "stable": 3807,
      "cell": 3808,
      "cau": 3809,
      "quit": 3810,
      "choice": 3811,
      "shovel": 3812,
      "pastry": 3813,
      "glowing": 3814,
      "pirates": 3815,
      "potato": 3816,
      "neighbour": 3817,
      "Rac": 3818,
      "bing": 3819,
      "hon": 3820,
      "mas": 3821,
      "vend": 3822,
      "alligator": 3823,
      "poem": 3824,
      "makeup": 3825,
      "tress": 3826,
      "buzz": 3827,
      "jeep": 3828,
      "presents": 3829,
      "cherries": 3830,
      "Car": 3831,
      "sunglasses": 3832,
      "greedy": 3833,
      "Instead": 3834,
      "puddles": 3835,
      "oyster": 3836,
      "sweetheart": 3837,
      "Rachel": 3838,
      "Mag": 3839,
      "ents": 3840,
      "poke": 3841,
      "cuss": 3842,
      "discuss": 3843,
      "perfectly": 3844,
      "lemonade": 3845,
      "scolded": 3846,
      "grocer": 3847,
      "vendor": 3848,
      "io": 3849,
      "oak": 3850,
      "izes": 3851,
      "points": 3852,
      "slept": 3853,
      "quarrel": 3854,
      "cauli": 3855,
      "attent": 3856,
      "umb": 3857,
      "rubber": 3858,
      "ignored": 3859,
      "aking": 3860,
      "summer": 3861,
      "ometer": 3862,
      "prepare": 3863,
      "didnâ": 3864,
      "olin": 3865,
      "donâ": 3866,
      "sticky": 3867,
      "mistakes": 3868,
      "married": 3869,
      "warning": 3870,
      "accepted": 3871,
      "sla": 3872,
      "wags": 3873,
      "bey": 3874,
      "una": 3875,
      "lier": 3876,
      "comfort": 3877,
      "tomato": 3878,
      "Lilly": 3879,
      "az": 3880,
      "inky": 3881,
      "mattress": 3882,
      "breathe": 3883,
      "lime": 3884,
      "ium": 3885,
      "mometer": 3886,
      "thermometer": 3887,
      "fog": 3888,
      "prevent": 3889,
      "shouting": 3890,
      "planes": 3891,
      "golden": 3892,
      "applau": 3893,
      "attention": 3894,
      "heli": 3895,
      "ups": 3896,
      "poss": 3897,
      "ction": 3898,
      "follows": 3899,
      "zebra": 3900,
      "swamp": 3901,
      "surrender": 3902,
      "between": 3903,
      "Happ": 3904,
      "Ste": 3905,
      "lk": 3906,
      "vac": 3907,
      "second": 3908,
      "rake": 3909,
      "pinch": 3910,
      "copter": 3911,
      "helicopter": 3912,
      "Lu": 3913,
      "fant": 3914,
      "nit": 3915,
      "tax": 3916,
      "waste": 3917,
      "ense": 3918,
      "ceiling": 3919,
      "seeing": 3920,
      "trave": 3921,
      "furnit": 3922,
      "Danny": 3923,
      "cauliflower": 3924,
      "furniture": 3925,
      "slice": 3926,
      "reeze": 3927,
      "heads": 3928,
      "kisses": 3929,
      "violin": 3930,
      "petals": 3931,
      "amed": 3932,
      "worth": 3933,
      "bling": 3934,
      "skirt": 3935,
      "moves": 3936,
      "winter": 3937,
      "hanging": 3938,
      "Charlie": 3939,
      "First": 3940,
      "Have": 3941,
      "Mim": 3942,
      "ait": 3943,
      "cus": 3944,
      "ris": 3945,
      "sau": 3946,
      "earlier": 3947,
      "twink": 3948,
      "fallen": 3949,
      "fields": 3950,
      "straight": 3951,
      "Mimi": 3952,
      "sna": 3953,
      "teas": 3954,
      "rooms": 3955,
      "surf": 3956,
      "shoulder": 3957,
      "fishing": 3958,
      "magaz": 3959,
      "throwing": 3960,
      "Buzz": 3961,
      "plastic": 3962,
      "buck": 3963,
      "page": 3964,
      "vision": 3965,
      "forgotten": 3966,
      "ngth": 3967,
      "puzzles": 3968,
      "attach": 3969,
      "chirp": 3970,
      "taxi": 3971,
      "Gre": 3972,
      "argue": 3973,
      "alive": 3974,
      "quack": 3975,
      "baking": 3976,
      "strength": 3977,
      "harbor": 3978,
      "crawling": 3979,
      "video": 3980,
      "True": 3981,
      "language": 3982,
      "padd": 3983,
      "caring": 3984,
      "helper": 3985,
      "grill": 3986,
      "offer": 3987,
      "wardrobe": 3988,
      "sailing": 3989,
      "musician": 3990,
      "chairs": 3991,
      "flapped": 3992,
      "sprink": 3993,
      "Tina": 3994,
      "apr": 3995,
      "kingdom": 3996,
      "chalk": 3997,
      "sprayed": 3998,
      "radio": 3999,
      "television": 4000,
      "Miss": 4001,
      "yer": 4002,
      "yield": 4003,
      "stad": 4004,
      "rod": 4005,
      "dressed": 4006,
      "squirrels": 4007,
      "horses": 4008,
      "quietly": 4009,
      "microscope": 4010,
      "beans": 4011,
      "sniffed": 4012,
      "exercise": 4013,
      "stadium": 4014,
      "awe": 4015,
      "hic": 4016,
      "mist": 4017,
      "sigh": 4018,
      "wipe": 4019,
      "œYou": 4020,
      "reaches": 4021,
      "ambul": 4022,
      "vehic": 4023,
      "surround": 4024,
      "created": 4025,
      "celebrated": 4026,
      "ambulance": 4027,
      "file": 4028,
      "iv": 4029,
      "washer": 4030,
      "argu": 4031,
      "plays": 4032,
      "creek": 4033,
      "cham": 4034,
      "coats": 4035,
      "Remy": 4036,
      "Happy": 4037,
      "wine": 4038,
      "alarm": 4039,
      "chor": 4040,
      "happens": 4041,
      "pected": 4042,
      "letting": 4043,
      "float": 4044,
      "folder": 4045,
      "dishwasher": 4046,
      "Sha": 4047,
      "lip": 4048,
      "fortun": 4049,
      "oking": 4050,
      "llen": 4051,
      "fauce": 4052,
      "rush": 4053,
      "dresses": 4054,
      "fastest": 4055,
      "lotion": 4056,
      "disappear": 4057,
      "signs": 4058,
      "knob": 4059,
      "eagerly": 4060,
      "lawyer": 4061,
      "memories": 4062,
      "ding": 4063,
      "ornam": 4064,
      "novel": 4065,
      "cared": 4066,
      "medal": 4067,
      "worms": 4068,
      "trusted": 4069,
      "possible": 4070,
      "oas": 4071,
      "olive": 4072,
      "sizes": 4073,
      "omed": 4074,
      "web": 4075,
      "shower": 4076,
      "flame": 4077,
      "freez": 4078,
      "kneel": 4079,
      "easily": 4080,
      "vacation": 4081,
      "faucet": 4082,
      "oasis": 4083,
      "breeze": 4084,
      "dam": 4085,
      "plates": 4086,
      "hearts": 4087,
      "bathe": 4088,
      "taller": 4089,
      "mint": 4090,
      "jellyfish": 4091,
      "May": 4092,
      "Su": 4093,
      "Wait": 4094,
      "fought": 4095
    },
    "merges": [
      [
        "h",
        "e"
      ],
      [
        "a",
        "n"
      ],
      [
        "t",
        "he"
      ],
      [
        "e",
        "d"
      ],
      [
        "an",
        "d"
      ],
      [
        "t",
        "o"
      ],
      [
        "i",
        "n"
      ],
      [
        "r",
        "e"
      ],
      [
        "o",
        "u"
      ],
      [
        "w",
        "a"
      ],
      [
        "i",
        "t"
      ],
      [
        "h",
        "a"
      ],
      [
        "e",
        "r"
      ],
      [
        "wa",
        "s"
      ],
      [
        "o",
        "m"
      ],
      [
        "e",
        "n"
      ],
      [
        "o",
        "n"
      ],
      [
        "T",
        "he"
      ],
      [
        "a",
        "r"
      ],
      [
        "i",
        "s"
      ],
      [
        "i",
        "l"
      ],
      [
        "in",
        "g"
      ],
      [
        "s",
        "a"
      ],
      [
        "i",
        "d"
      ],
      [
        "a",
        "y"
      ],
      [
        "l",
        "e"
      ],
      [
        "i",
        "m"
      ],
      [
        "l",
        "o"
      ],
      [
        "o",
        "r"
      ],
      [
        "a",
        "l"
      ],
      [
        "s",
        "t"
      ],
      [
        "he",
        "r"
      ],
      [
        "H",
        "e"
      ],
      [
        "S",
        "he"
      ],
      [
        "i",
        "r"
      ],
      [
        "The",
        "y"
      ],
      [
        "t",
        "h"
      ],
      [
        "b",
        "e"
      ],
      [
        "n",
        "e"
      ],
      [
        "ha",
        "t"
      ],
      [
        "v",
        "er"
      ],
      [
        "u",
        "t"
      ],
      [
        "s",
        "e"
      ],
      [
        "k",
        "e"
      ],
      [
        "il",
        "y"
      ],
      [
        "n",
        "o"
      ],
      [
        "a",
        "t"
      ],
      [
        "a",
        "m"
      ],
      [
        "c",
        "k"
      ],
      [
        "l",
        "d"
      ],
      [
        "c",
        "e"
      ],
      [
        "v",
        "e"
      ],
      [
        "sa",
        "id"
      ],
      [
        "r",
        "i"
      ],
      [
        "L",
        "ily"
      ],
      [
        "s",
        "he"
      ],
      [
        "p",
        "l"
      ],
      [
        "it",
        "h"
      ],
      [
        "w",
        "ith"
      ],
      [
        "p",
        "p"
      ],
      [
        "i",
        "g"
      ],
      [
        "h",
        "is"
      ],
      [
        "o",
        "f"
      ],
      [
        "a",
        "d"
      ],
      [
        "u",
        "n"
      ],
      [
        "y",
        "ou"
      ],
      [
        "k",
        "ed"
      ],
      [
        "d",
        "ay"
      ],
      [
        "s",
        "o"
      ],
      [
        "l",
        "y"
      ],
      [
        "w",
        "e"
      ],
      [
        "ver",
        "y"
      ],
      [
        "om",
        "e"
      ],
      [
        "m",
        "y"
      ],
      [
        "l",
        "i"
      ],
      [
        "t",
        "hat"
      ],
      [
        "u",
        "p"
      ],
      [
        "g",
        "o"
      ],
      [
        "o",
        "w"
      ],
      [
        "an",
        "t"
      ],
      [
        "pl",
        "ay"
      ],
      [
        "e",
        "s"
      ],
      [
        "c",
        "h"
      ],
      [
        "a",
        "s"
      ],
      [
        "ha",
        "d"
      ],
      [
        "the",
        "y"
      ],
      [
        "f",
        "or"
      ],
      [
        "m",
        "om"
      ],
      [
        "f",
        "e"
      ],
      [
        "n",
        "d"
      ],
      [
        "ou",
        "ld"
      ],
      [
        "en",
        "d"
      ],
      [
        "al",
        "l"
      ],
      [
        "b",
        "o"
      ],
      [
        "ha",
        "pp"
      ],
      [
        "w",
        "ant"
      ],
      [
        "en",
        "t"
      ],
      [
        "it",
        "t"
      ],
      [
        "a",
        "re"
      ],
      [
        "g",
        "e"
      ],
      [
        "o",
        "k"
      ],
      [
        "t",
        "im"
      ],
      [
        "I",
        "t"
      ],
      [
        "d",
        "o"
      ],
      [
        "no",
        "t"
      ],
      [
        "ou",
        "t"
      ],
      [
        "r",
        "o"
      ],
      [
        "the",
        "r"
      ],
      [
        "ou",
        "nd"
      ],
      [
        "itt",
        "le"
      ],
      [
        "tim",
        "e"
      ],
      [
        "l",
        "ittle"
      ],
      [
        "r",
        "y"
      ],
      [
        "happ",
        "y"
      ],
      [
        "the",
        "re"
      ],
      [
        "b",
        "ig"
      ],
      [
        "s",
        "h"
      ],
      [
        "h",
        "t"
      ],
      [
        "r",
        "a"
      ],
      [
        "y",
        "s"
      ],
      [
        "s",
        "m"
      ],
      [
        "f",
        "ri"
      ],
      [
        "b",
        "ut"
      ],
      [
        "a",
        "ke"
      ],
      [
        "sa",
        "w"
      ],
      [
        "T",
        "im"
      ],
      [
        "fri",
        "end"
      ],
      [
        "t",
        "er"
      ],
      [
        ".",
        "\""
      ],
      [
        "O",
        "ne"
      ],
      [
        "a",
        "ck"
      ],
      [
        "id",
        "e"
      ],
      [
        "l",
        "l"
      ],
      [
        "s",
        "ome"
      ],
      [
        "th",
        "ing"
      ],
      [
        "O",
        "n"
      ],
      [
        "on",
        "e"
      ],
      [
        "v",
        "ed"
      ],
      [
        "u",
        "g"
      ],
      [
        "we",
        "re"
      ],
      [
        "!",
        "\""
      ],
      [
        "On",
        "ce"
      ],
      [
        "h",
        "o"
      ],
      [
        "c",
        "ar"
      ],
      [
        "f",
        "u"
      ],
      [
        "h",
        "im"
      ],
      [
        "p",
        "e"
      ],
      [
        "B",
        "en"
      ],
      [
        "want",
        "ed"
      ],
      [
        "the",
        "m"
      ],
      [
        "up",
        "on"
      ],
      [
        "T",
        "om"
      ],
      [
        "ir",
        "l"
      ],
      [
        "the",
        "ir"
      ],
      [
        "g",
        "irl"
      ],
      [
        "m",
        "e"
      ],
      [
        "d",
        "id"
      ],
      [
        "in",
        "d"
      ],
      [
        "il",
        "l"
      ],
      [
        "a",
        "g"
      ],
      [
        "c",
        "o"
      ],
      [
        "c",
        "ould"
      ],
      [
        "ha",
        "ve"
      ],
      [
        "m",
        "o"
      ],
      [
        "sm",
        "il"
      ],
      [
        "fu",
        "l"
      ],
      [
        "he",
        "n"
      ],
      [
        "u",
        "r"
      ],
      [
        "e",
        "x"
      ],
      [
        "B",
        "ut"
      ],
      [
        "he",
        "l"
      ],
      [
        "w",
        "ent"
      ],
      [
        "c",
        "an"
      ],
      [
        "n",
        "am"
      ],
      [
        "r",
        "om"
      ],
      [
        "t",
        "ed"
      ],
      [
        "ne",
        "w"
      ],
      [
        "d",
        "e"
      ],
      [
        "o",
        "d"
      ],
      [
        "?",
        "\""
      ],
      [
        "hel",
        "p"
      ],
      [
        "friend",
        "s"
      ],
      [
        "Tim",
        "my"
      ],
      [
        "a",
        "b"
      ],
      [
        "u",
        "m"
      ],
      [
        "b",
        "ack"
      ],
      [
        "Y",
        "ou"
      ],
      [
        "f",
        "un"
      ],
      [
        "he",
        "d"
      ],
      [
        "a",
        "in"
      ],
      [
        "wa",
        "y"
      ],
      [
        "l",
        "t"
      ],
      [
        "li",
        "ke"
      ],
      [
        "p",
        "ar"
      ],
      [
        "to",
        "o"
      ],
      [
        "s",
        "ide"
      ],
      [
        "nam",
        "ed"
      ],
      [
        "i",
        "c"
      ],
      [
        "m",
        "an"
      ],
      [
        "f",
        "o"
      ],
      [
        "r",
        "an"
      ],
      [
        "lo",
        "ved"
      ],
      [
        "g",
        "ht"
      ],
      [
        "st",
        "ar"
      ],
      [
        "p",
        "o"
      ],
      [
        "e",
        "l"
      ],
      [
        "fe",
        "lt"
      ],
      [
        "lo",
        "w"
      ],
      [
        "se",
        "e"
      ],
      [
        "as",
        "ked"
      ],
      [
        "lo",
        "o"
      ],
      [
        "smil",
        "ed"
      ],
      [
        "i",
        "ck"
      ],
      [
        "s",
        "to"
      ],
      [
        "e",
        "t"
      ],
      [
        "M",
        "om"
      ],
      [
        "loo",
        "ked"
      ],
      [
        "am",
        "e"
      ],
      [
        "ow",
        "n"
      ],
      [
        "m",
        "ake"
      ],
      [
        "ar",
        "d"
      ],
      [
        "b",
        "ir"
      ],
      [
        "u",
        "re"
      ],
      [
        "ar",
        "ound"
      ],
      [
        "p",
        "r"
      ],
      [
        "w",
        "ould"
      ],
      [
        "no",
        "w"
      ],
      [
        "w",
        "or"
      ],
      [
        "bo",
        "y"
      ],
      [
        "g",
        "r"
      ],
      [
        "f",
        "a"
      ],
      [
        "on",
        "g"
      ],
      [
        "bir",
        "d"
      ],
      [
        "o",
        "ther"
      ],
      [
        "l",
        "a"
      ],
      [
        "par",
        "k"
      ],
      [
        "m",
        "ad"
      ],
      [
        "t",
        "re"
      ],
      [
        "w",
        "hat"
      ],
      [
        "o",
        "p"
      ],
      [
        "c",
        "a"
      ],
      [
        "ge",
        "ther"
      ],
      [
        ",",
        "\""
      ],
      [
        "i",
        "ce"
      ],
      [
        "sa",
        "ys"
      ],
      [
        "a",
        "way"
      ],
      [
        "mad",
        "e"
      ],
      [
        "ou",
        "d"
      ],
      [
        "c",
        "ame"
      ],
      [
        "s",
        "s"
      ],
      [
        "to",
        "gether"
      ],
      [
        "star",
        "ted"
      ],
      [
        "d",
        "d"
      ],
      [
        "n",
        "a"
      ],
      [
        "ig",
        "ht"
      ],
      [
        "ge",
        "t"
      ],
      [
        "p",
        "ut"
      ],
      [
        "sa",
        "d"
      ],
      [
        "some",
        "thing"
      ],
      [
        "go",
        "t"
      ],
      [
        "it",
        "ed"
      ],
      [
        "lo",
        "ok"
      ],
      [
        "ag",
        "ain"
      ],
      [
        "f",
        "rom"
      ],
      [
        "u",
        "e"
      ],
      [
        "t",
        "s"
      ],
      [
        "s",
        "car"
      ],
      [
        "h",
        "ome"
      ],
      [
        "go",
        "od"
      ],
      [
        "m",
        "u"
      ],
      [
        "t",
        "e"
      ],
      [
        "a",
        "ch"
      ],
      [
        "ri",
        "ed"
      ],
      [
        "i",
        "f"
      ],
      [
        "w",
        "ho"
      ],
      [
        "f",
        "ound"
      ],
      [
        "ex",
        "c"
      ],
      [
        "the",
        "n"
      ],
      [
        "mo",
        "re"
      ],
      [
        "h",
        "ug"
      ],
      [
        "c",
        "id"
      ],
      [
        "wa",
        "l"
      ],
      [
        "i",
        "e"
      ],
      [
        "play",
        "ing"
      ],
      [
        "pp",
        "ed"
      ],
      [
        "w",
        "hen"
      ],
      [
        "e",
        "p"
      ],
      [
        "ou",
        "ght"
      ],
      [
        "a",
        "ve"
      ],
      [
        "r",
        "u"
      ],
      [
        "li",
        "ked"
      ],
      [
        "k",
        "ing"
      ],
      [
        "thing",
        "s"
      ],
      [
        "c",
        "i"
      ],
      [
        "al",
        "ly"
      ],
      [
        "S",
        "am"
      ],
      [
        "A",
        "n"
      ],
      [
        "e",
        "very"
      ],
      [
        "d",
        "er"
      ],
      [
        "W",
        "e"
      ],
      [
        "b",
        "y"
      ],
      [
        "a",
        "x"
      ],
      [
        "do",
        "g"
      ],
      [
        "you",
        "r"
      ],
      [
        "c",
        "are"
      ],
      [
        "n",
        "y"
      ],
      [
        "de",
        "cid"
      ],
      [
        "b",
        "u"
      ],
      [
        "exc",
        "ited"
      ],
      [
        "ou",
        "s"
      ],
      [
        "decid",
        "ed"
      ],
      [
        "p",
        "re"
      ],
      [
        "u",
        "se"
      ],
      [
        "ou",
        "se"
      ],
      [
        "ar",
        "a"
      ],
      [
        "d",
        "own"
      ],
      [
        "f",
        "ind"
      ],
      [
        "M",
        "ax"
      ],
      [
        "scar",
        "ed"
      ],
      [
        "ar",
        "n"
      ],
      [
        "fe",
        "el"
      ],
      [
        "s",
        "ha"
      ],
      [
        "d",
        "ad"
      ],
      [
        "t",
        "ake"
      ],
      [
        "th",
        "an"
      ],
      [
        "s",
        "pe"
      ],
      [
        "An",
        "na"
      ],
      [
        "at",
        "e"
      ],
      [
        "a",
        "c"
      ],
      [
        "wa",
        "ys"
      ],
      [
        "j",
        "o"
      ],
      [
        "did",
        "n"
      ],
      [
        "to",
        "ys"
      ],
      [
        "w",
        "ill"
      ],
      [
        "mom",
        "my"
      ],
      [
        "to",
        "ok"
      ],
      [
        "an",
        "g"
      ],
      [
        "ou",
        "r"
      ],
      [
        "c",
        "lo"
      ],
      [
        "he",
        "re"
      ],
      [
        "S",
        "ara"
      ],
      [
        "ab",
        "out"
      ],
      [
        "al",
        "ways"
      ],
      [
        "k",
        "now"
      ],
      [
        "u",
        "dd"
      ],
      [
        "s",
        "or"
      ],
      [
        "tre",
        "e"
      ],
      [
        "it",
        "e"
      ],
      [
        "le",
        "arn"
      ],
      [
        "er",
        "s"
      ],
      [
        "m",
        "a"
      ],
      [
        "out",
        "side"
      ],
      [
        "b",
        "ed"
      ],
      [
        "w",
        "o"
      ],
      [
        "th",
        "ought"
      ],
      [
        "ro",
        "om"
      ],
      [
        "b",
        "all"
      ],
      [
        "en",
        "ed"
      ],
      [
        "t",
        "y"
      ],
      [
        "i",
        "ve"
      ],
      [
        "S",
        "o"
      ],
      [
        "w",
        "h"
      ],
      [
        "is",
        "e"
      ],
      [
        "c",
        "at"
      ],
      [
        "q",
        "u"
      ],
      [
        "u",
        "st"
      ],
      [
        "H",
        "er"
      ],
      [
        "o",
        "ld"
      ],
      [
        "fo",
        "re"
      ],
      [
        "g",
        "ed"
      ],
      [
        "r",
        "ed"
      ],
      [
        "r",
        "un"
      ],
      [
        "an",
        "y"
      ],
      [
        "W",
        "hen"
      ],
      [
        "p",
        "u"
      ],
      [
        "la",
        "ug"
      ],
      [
        "to",
        "y"
      ],
      [
        "k",
        "new"
      ],
      [
        "p",
        "a"
      ],
      [
        "s",
        "ed"
      ],
      [
        "h",
        "ouse"
      ],
      [
        "f",
        "ter"
      ],
      [
        "sor",
        "ry"
      ],
      [
        "c",
        "ome"
      ],
      [
        "spe",
        "ci"
      ],
      [
        "h",
        "ow"
      ],
      [
        "is",
        "h"
      ],
      [
        "speci",
        "al"
      ],
      [
        "b",
        "r"
      ],
      [
        "sh",
        "ow"
      ],
      [
        "b",
        "l"
      ],
      [
        "in",
        "k"
      ],
      [
        "ne",
        "ver"
      ],
      [
        "is",
        "t"
      ],
      [
        "udd",
        "en"
      ],
      [
        "d",
        "re"
      ],
      [
        "mu",
        "ch"
      ],
      [
        "o",
        "l"
      ],
      [
        "s",
        "w"
      ],
      [
        "J",
        "o"
      ],
      [
        "c",
        "le"
      ],
      [
        "g",
        "ave"
      ],
      [
        "care",
        "ful"
      ],
      [
        "l",
        "f"
      ],
      [
        "udden",
        "ly"
      ],
      [
        "i",
        "a"
      ],
      [
        "c",
        "re"
      ],
      [
        "r",
        "d"
      ],
      [
        "ab",
        "le"
      ],
      [
        "to",
        "ld"
      ],
      [
        "h",
        "and"
      ],
      [
        "wa",
        "ter"
      ],
      [
        "v",
        "en"
      ],
      [
        "s",
        "un"
      ],
      [
        "l",
        "ong"
      ],
      [
        "s",
        "k"
      ],
      [
        "t",
        "ried"
      ],
      [
        "bo",
        "x"
      ],
      [
        "t",
        "ter"
      ],
      [
        "E",
        "very"
      ],
      [
        "lo",
        "ve"
      ],
      [
        "J",
        "ack"
      ],
      [
        "ra",
        "b"
      ],
      [
        "t",
        "a"
      ],
      [
        "in",
        "side"
      ],
      [
        "in",
        "to"
      ],
      [
        "play",
        "ed"
      ],
      [
        "o",
        "ver"
      ],
      [
        "c",
        "l"
      ],
      [
        "pr",
        "oud"
      ],
      [
        "e",
        "at"
      ],
      [
        "pre",
        "t"
      ],
      [
        "ca",
        "use"
      ],
      [
        "could",
        "n"
      ],
      [
        "e",
        "ach"
      ],
      [
        "p",
        "ick"
      ],
      [
        "g",
        "re"
      ],
      [
        "he",
        "ard"
      ],
      [
        "s",
        "p"
      ],
      [
        "F",
        "rom"
      ],
      [
        "d",
        "y"
      ],
      [
        "M",
        "ia"
      ],
      [
        "hug",
        "ged"
      ],
      [
        "th",
        "is"
      ],
      [
        "be",
        "cause"
      ],
      [
        "i",
        "on"
      ],
      [
        "L",
        "et"
      ],
      [
        "A",
        "nd"
      ],
      [
        "wa",
        "t"
      ],
      [
        "um",
        "p"
      ],
      [
        "f",
        "ly"
      ],
      [
        "n",
        "ice"
      ],
      [
        "man",
        "y"
      ],
      [
        "ne",
        "ed"
      ],
      [
        "j",
        "ust"
      ],
      [
        "S",
        "uddenly"
      ],
      [
        "c",
        "om"
      ],
      [
        "c",
        "he"
      ],
      [
        "c",
        "t"
      ],
      [
        "un",
        "t"
      ],
      [
        "e",
        "ar"
      ],
      [
        "b",
        "er"
      ],
      [
        "The",
        "n"
      ],
      [
        "il",
        "e"
      ],
      [
        "f",
        "low"
      ],
      [
        "ri",
        "ght"
      ],
      [
        "H",
        "is"
      ],
      [
        "learn",
        "ed"
      ],
      [
        "sm",
        "all"
      ],
      [
        "i",
        "z"
      ],
      [
        "t",
        "ry"
      ],
      [
        "po",
        "t"
      ],
      [
        "l",
        "ad"
      ],
      [
        "be",
        "ar"
      ],
      [
        "sh",
        "in"
      ],
      [
        "v",
        "ing"
      ],
      [
        "of",
        "f"
      ],
      [
        "u",
        "c"
      ],
      [
        "be",
        "tter"
      ],
      [
        "u",
        "ck"
      ],
      [
        "ke",
        "t"
      ],
      [
        "im",
        "al"
      ],
      [
        "an",
        "imal"
      ],
      [
        "p",
        "er"
      ],
      [
        "T",
        "hat"
      ],
      [
        "ou",
        "g"
      ],
      [
        "re",
        "ad"
      ],
      [
        "it",
        "s"
      ],
      [
        "oug",
        "h"
      ],
      [
        "b",
        "le"
      ],
      [
        "fa",
        "st"
      ],
      [
        "unt",
        "il"
      ],
      [
        "ex",
        "p"
      ],
      [
        "se",
        "lf"
      ],
      [
        "f",
        "i"
      ],
      [
        "k",
        "ind"
      ],
      [
        "sa",
        "y"
      ],
      [
        "h",
        "ur"
      ],
      [
        "w",
        "here"
      ],
      [
        "b",
        "it"
      ],
      [
        "be",
        "st"
      ],
      [
        "be",
        "a"
      ],
      [
        "c",
        "all"
      ],
      [
        "Y",
        "es"
      ],
      [
        "d",
        "on"
      ],
      [
        "v",
        "ent"
      ],
      [
        "ur",
        "n"
      ],
      [
        "b",
        "ra"
      ],
      [
        "sk",
        "y"
      ],
      [
        "W",
        "hat"
      ],
      [
        "e",
        "ven"
      ],
      [
        "sa",
        "fe"
      ],
      [
        "than",
        "ked"
      ],
      [
        "n",
        "t"
      ],
      [
        "r",
        "ong"
      ],
      [
        "C",
        "an"
      ],
      [
        "exp",
        "lo"
      ],
      [
        "f",
        "le"
      ],
      [
        "an",
        "k"
      ],
      [
        "g",
        "ard"
      ],
      [
        "le",
        "t"
      ],
      [
        "gard",
        "en"
      ],
      [
        "l",
        "ist"
      ],
      [
        "a",
        "ce"
      ],
      [
        "un",
        "der"
      ],
      [
        "bea",
        "ut"
      ],
      [
        "l",
        "oud"
      ],
      [
        "j",
        "ump"
      ],
      [
        "st",
        "ill"
      ],
      [
        "y",
        "es"
      ],
      [
        "f",
        "in"
      ],
      [
        "u",
        "s"
      ],
      [
        "p",
        "t"
      ],
      [
        "laug",
        "hed"
      ],
      [
        "f",
        "am"
      ],
      [
        "g",
        "ive"
      ],
      [
        "lo",
        "ts"
      ],
      [
        "s",
        "ur"
      ],
      [
        "Mom",
        "my"
      ],
      [
        "c",
        "hed"
      ],
      [
        "ra",
        "in"
      ],
      [
        "animal",
        "s"
      ],
      [
        "i",
        "ful"
      ],
      [
        "beaut",
        "iful"
      ],
      [
        "am",
        "a"
      ],
      [
        "jo",
        "y"
      ],
      [
        "T",
        "h"
      ],
      [
        "bo",
        "ok"
      ],
      [
        "n",
        "ing"
      ],
      [
        "t",
        "ru"
      ],
      [
        "ck",
        "s"
      ],
      [
        "t",
        "urn"
      ],
      [
        "A",
        "s"
      ],
      [
        "hur",
        "t"
      ],
      [
        "li",
        "ved"
      ],
      [
        "w",
        "on"
      ],
      [
        "gr",
        "ound"
      ],
      [
        "b",
        "ad"
      ],
      [
        "bo",
        "th"
      ],
      [
        "op",
        "le"
      ],
      [
        "Th",
        "ank"
      ],
      [
        "st",
        "ay"
      ],
      [
        "A",
        "fter"
      ],
      [
        "ha",
        "rd"
      ],
      [
        "N",
        "o"
      ],
      [
        "re",
        "e"
      ],
      [
        "is",
        "hed"
      ],
      [
        "Jo",
        "h"
      ],
      [
        "bra",
        "ve"
      ],
      [
        "Joh",
        "n"
      ],
      [
        "sh",
        "ould"
      ],
      [
        "sha",
        "re"
      ],
      [
        "p",
        "ic"
      ],
      [
        "pe",
        "ople"
      ],
      [
        "fam",
        "ily"
      ],
      [
        "le",
        "a"
      ],
      [
        "ke",
        "ep"
      ],
      [
        "ang",
        "ry"
      ],
      [
        "r",
        "m"
      ],
      [
        "ig",
        "h"
      ],
      [
        "in",
        "e"
      ],
      [
        "c",
        "on"
      ],
      [
        "s",
        "l"
      ],
      [
        "cle",
        "an"
      ],
      [
        "as",
        "s"
      ],
      [
        "wal",
        "ked"
      ],
      [
        "o",
        "b"
      ],
      [
        "a",
        "pp"
      ],
      [
        "re",
        "al"
      ],
      [
        "pret",
        "ty"
      ],
      [
        "fle",
        "w"
      ],
      [
        "do",
        "ll"
      ],
      [
        "o",
        "ok"
      ],
      [
        "t",
        "wo"
      ],
      [
        "L",
        "uc"
      ],
      [
        "or",
        "t"
      ],
      [
        "call",
        "ed"
      ],
      [
        "Luc",
        "y"
      ],
      [
        "ar",
        "m"
      ],
      [
        "do",
        "or"
      ],
      [
        "so",
        "on"
      ],
      [
        "sur",
        "pr"
      ],
      [
        "t",
        "ing"
      ],
      [
        "ha",
        "s"
      ],
      [
        "b",
        "ro"
      ],
      [
        "shin",
        "y"
      ],
      [
        "lo",
        "t"
      ],
      [
        "pl",
        "ace"
      ],
      [
        "im",
        "p"
      ],
      [
        "d",
        "ra"
      ],
      [
        "ke",
        "pt"
      ],
      [
        "w",
        "ind"
      ],
      [
        "is",
        "ed"
      ],
      [
        "go",
        "ing"
      ],
      [
        "um",
        "my"
      ],
      [
        "c",
        "ry"
      ],
      [
        "il",
        "ly"
      ],
      [
        "op",
        "ened"
      ],
      [
        "c",
        "u"
      ],
      [
        "me",
        "m"
      ],
      [
        "feel",
        "ing"
      ],
      [
        "an",
        "e"
      ],
      [
        "D",
        "ad"
      ],
      [
        "st",
        "e"
      ],
      [
        "s",
        "er"
      ],
      [
        "as",
        "k"
      ],
      [
        "co",
        "lo"
      ],
      [
        "ad",
        "vent"
      ],
      [
        "no",
        "ise"
      ],
      [
        "se",
        "t"
      ],
      [
        "il",
        "d"
      ],
      [
        "al",
        "so"
      ],
      [
        "pick",
        "ed"
      ],
      [
        "he",
        "ar"
      ],
      [
        "t",
        "al"
      ],
      [
        "t",
        "ure"
      ],
      [
        "colo",
        "r"
      ],
      [
        "wh",
        "ile"
      ],
      [
        "explo",
        "re"
      ],
      [
        "ne",
        "x"
      ],
      [
        "be",
        "fore"
      ],
      [
        "no",
        "dd"
      ],
      [
        "ay",
        "be"
      ],
      [
        "ide",
        "a"
      ],
      [
        "nodd",
        "ed"
      ],
      [
        "nex",
        "t"
      ],
      [
        "cl",
        "im"
      ],
      [
        "pic",
        "ture"
      ],
      [
        "f",
        "ish"
      ],
      [
        "i",
        "ed"
      ],
      [
        "th",
        "r"
      ],
      [
        "u",
        "ch"
      ],
      [
        "fa",
        "ce"
      ],
      [
        "m",
        "or"
      ],
      [
        "le",
        "ss"
      ],
      [
        "wor",
        "k"
      ],
      [
        "i",
        "es"
      ],
      [
        "ll",
        "ed"
      ],
      [
        "smil",
        "e"
      ],
      [
        "B",
        "ob"
      ],
      [
        "l",
        "ed"
      ],
      [
        "be",
        "ing"
      ],
      [
        "a",
        "k"
      ],
      [
        "list",
        "en"
      ],
      [
        "he",
        "ad"
      ],
      [
        "we",
        "et"
      ],
      [
        "D",
        "o"
      ],
      [
        "bl",
        "ue"
      ],
      [
        "c",
        "ha"
      ],
      [
        "mem",
        "ber"
      ],
      [
        "advent",
        "ure"
      ],
      [
        "wal",
        "king"
      ],
      [
        "fo",
        "od"
      ],
      [
        "li",
        "e"
      ],
      [
        "th",
        "ink"
      ],
      [
        "ar",
        "k"
      ],
      [
        "n",
        "ight"
      ],
      [
        "S",
        "ue"
      ],
      [
        "look",
        "ing"
      ],
      [
        "ic",
        "ed"
      ],
      [
        "e",
        "ver"
      ],
      [
        "wal",
        "k"
      ],
      [
        "d",
        "if"
      ],
      [
        "g",
        "rab"
      ],
      [
        "sl",
        "ide"
      ],
      [
        "a",
        "fter"
      ],
      [
        "es",
        "s"
      ],
      [
        "iz",
        "ed"
      ],
      [
        "e",
        "yes"
      ],
      [
        "ug",
        "ht"
      ],
      [
        "hand",
        "s"
      ],
      [
        "bo",
        "at"
      ],
      [
        "re",
        "member"
      ],
      [
        "c",
        "ake"
      ],
      [
        "flow",
        "ers"
      ],
      [
        "€",
        "™"
      ],
      [
        "tru",
        "ck"
      ],
      [
        "wat",
        "ch"
      ],
      [
        "wa",
        "it"
      ],
      [
        "b",
        "lo"
      ],
      [
        "st",
        "ick"
      ],
      [
        "sto",
        "pped"
      ],
      [
        "L",
        "ook"
      ],
      [
        "S",
        "pot"
      ],
      [
        "le",
        "s"
      ],
      [
        "ri",
        "es"
      ],
      [
        "won",
        "der"
      ],
      [
        "gre",
        "at"
      ],
      [
        "me",
        "an"
      ],
      [
        "d",
        "is"
      ],
      [
        "ok",
        "ay"
      ],
      [
        "l",
        "ight"
      ],
      [
        "ing",
        "s"
      ],
      [
        "ama",
        "z"
      ],
      [
        "co",
        "ok"
      ],
      [
        "te",
        "ll"
      ],
      [
        "ch",
        "o"
      ],
      [
        "show",
        "ed"
      ],
      [
        "ir",
        "st"
      ],
      [
        "ne",
        "ar"
      ],
      [
        "en",
        "joy"
      ],
      [
        "le",
        "ave"
      ],
      [
        "T",
        "his"
      ],
      [
        "v",
        "o"
      ],
      [
        "fore",
        "st"
      ],
      [
        "re",
        "pl"
      ],
      [
        "st",
        "rong"
      ],
      [
        "M",
        "aybe"
      ],
      [
        "l",
        "low"
      ],
      [
        "not",
        "iced"
      ],
      [
        "qu",
        "ick"
      ],
      [
        "c",
        "ou"
      ],
      [
        "f",
        "f"
      ],
      [
        "by",
        "e"
      ],
      [
        "lea",
        "se"
      ],
      [
        "m",
        "on"
      ],
      [
        "imp",
        "ort"
      ],
      [
        "sh",
        "o"
      ],
      [
        "sh",
        "out"
      ],
      [
        "re",
        "st"
      ],
      [
        "fo",
        "llow"
      ],
      [
        "every",
        "one"
      ],
      [
        "d",
        "an"
      ],
      [
        "sto",
        "re"
      ],
      [
        "s",
        "ound"
      ],
      [
        "to",
        "r"
      ],
      [
        "s",
        "n"
      ],
      [
        "import",
        "ant"
      ],
      [
        "repl",
        "ied"
      ],
      [
        "and",
        "ma"
      ],
      [
        "fe",
        "re"
      ],
      [
        "b",
        "ow"
      ],
      [
        "do",
        "es"
      ],
      [
        "be",
        "came"
      ],
      [
        "dif",
        "fere"
      ],
      [
        "cre",
        "am"
      ],
      [
        "p",
        "h"
      ],
      [
        "n",
        "er"
      ],
      [
        "s",
        "ing"
      ],
      [
        "wat",
        "ched"
      ],
      [
        "st",
        "and"
      ],
      [
        "i",
        "p"
      ],
      [
        "s",
        "ure"
      ],
      [
        "r",
        "ing"
      ],
      [
        "h",
        "igh"
      ],
      [
        "y",
        "ear"
      ],
      [
        "dre",
        "ss"
      ],
      [
        "g",
        "an"
      ],
      [
        "of",
        "t"
      ],
      [
        "b",
        "right"
      ],
      [
        "any",
        "more"
      ],
      [
        "quick",
        "ly"
      ],
      [
        "un",
        "g"
      ],
      [
        "laug",
        "h"
      ],
      [
        "il",
        "a"
      ],
      [
        "cu",
        "ri"
      ],
      [
        "le",
        "ep"
      ],
      [
        "differe",
        "nt"
      ],
      [
        "m",
        "ag"
      ],
      [
        "t",
        "in"
      ],
      [
        "L",
        "ila"
      ],
      [
        "p",
        "ain"
      ],
      [
        "rab",
        "bit"
      ],
      [
        "b",
        "re"
      ],
      [
        "vo",
        "ice"
      ],
      [
        "c",
        "ket"
      ],
      [
        "t",
        "w"
      ],
      [
        "to",
        "p"
      ],
      [
        "good",
        "bye"
      ],
      [
        "wa",
        "rm"
      ],
      [
        "be",
        "en"
      ],
      [
        "flow",
        "er"
      ],
      [
        "on",
        "d"
      ],
      [
        "curi",
        "ous"
      ],
      [
        "J",
        "ane"
      ],
      [
        "f",
        "lo"
      ],
      [
        "op",
        "en"
      ],
      [
        "m",
        "is"
      ],
      [
        "but",
        "ter"
      ],
      [
        "p",
        "ie"
      ],
      [
        "fi",
        "re"
      ],
      [
        "ir",
        "ed"
      ],
      [
        "k",
        "it"
      ],
      [
        "tim",
        "es"
      ],
      [
        "fa",
        "v"
      ],
      [
        "clo",
        "ser"
      ],
      [
        "wa",
        "rd"
      ],
      [
        "fe",
        "ll"
      ],
      [
        "ac",
        "hed"
      ],
      [
        "help",
        "ed"
      ],
      [
        "b",
        "or"
      ],
      [
        "read",
        "y"
      ],
      [
        "t",
        "able"
      ],
      [
        "f",
        "l"
      ],
      [
        "c",
        "or"
      ],
      [
        "f",
        "irst"
      ],
      [
        "se",
        "es"
      ],
      [
        "Sara",
        "h"
      ],
      [
        "c",
        "hen"
      ],
      [
        "kit",
        "chen"
      ],
      [
        "d",
        "ro"
      ],
      [
        "f",
        "t"
      ],
      [
        "D",
        "on"
      ],
      [
        "happ",
        "ened"
      ],
      [
        "s",
        "and"
      ],
      [
        "t",
        "r"
      ],
      [
        "to",
        "w"
      ],
      [
        "dra",
        "w"
      ],
      [
        "k",
        "id"
      ],
      [
        "c",
        "ut"
      ],
      [
        "c",
        "r"
      ],
      [
        "sto",
        "ry"
      ],
      [
        "on",
        "ly"
      ],
      [
        "He",
        "l"
      ],
      [
        "g",
        "lad"
      ],
      [
        "bird",
        "s"
      ],
      [
        "as",
        "h"
      ],
      [
        "Every",
        "one"
      ],
      [
        "sto",
        "p"
      ],
      [
        "bro",
        "ther"
      ],
      [
        "a",
        "ir"
      ],
      [
        "p",
        "are"
      ],
      [
        "er",
        "ed"
      ],
      [
        "un",
        "ny"
      ],
      [
        "real",
        "ized"
      ],
      [
        "at",
        "er"
      ],
      [
        "m",
        "ed"
      ],
      [
        "gr",
        "ass"
      ],
      [
        "th",
        "ree"
      ],
      [
        "I",
        "n"
      ],
      [
        "grab",
        "bed"
      ],
      [
        "st",
        "er"
      ],
      [
        "u",
        "sed"
      ],
      [
        "ha",
        "ving"
      ],
      [
        "jump",
        "ed"
      ],
      [
        "d",
        "in"
      ],
      [
        "ro",
        "ck"
      ],
      [
        "u",
        "ff"
      ],
      [
        "she",
        "d"
      ],
      [
        "s",
        "oft"
      ],
      [
        "re",
        "ached"
      ],
      [
        "y",
        "ummy"
      ],
      [
        "s",
        "qu"
      ],
      [
        "b",
        "al"
      ],
      [
        "g",
        "u"
      ],
      [
        "Jo",
        "e"
      ],
      [
        "in",
        "s"
      ],
      [
        "de",
        "li"
      ],
      [
        "s",
        "weet"
      ],
      [
        "W",
        "h"
      ],
      [
        "z",
        "y"
      ],
      [
        "fav",
        "or"
      ],
      [
        "g",
        "ame"
      ],
      [
        "ke",
        "y"
      ],
      [
        "thr",
        "ough"
      ],
      [
        "favor",
        "ite"
      ],
      [
        "fi",
        "x"
      ],
      [
        "pr",
        "in"
      ],
      [
        "pie",
        "ce"
      ],
      [
        "q",
        "ue"
      ],
      [
        "is",
        "y"
      ],
      [
        "pret",
        "end"
      ],
      [
        "t",
        "ra"
      ],
      [
        "com",
        "ing"
      ],
      [
        "N",
        "ow"
      ],
      [
        "lad",
        "y"
      ],
      [
        "wor",
        "ld"
      ],
      [
        "we",
        "l"
      ],
      [
        "W",
        "ow"
      ],
      [
        "shout",
        "ed"
      ],
      [
        "t",
        "ired"
      ],
      [
        "cat",
        "ch"
      ],
      [
        "nam",
        "e"
      ],
      [
        "d",
        "s"
      ],
      [
        "c",
        "ried"
      ],
      [
        "co",
        "ld"
      ],
      [
        "kid",
        "s"
      ],
      [
        "fun",
        "ny"
      ],
      [
        "pa",
        "per"
      ],
      [
        "mo",
        "ve"
      ],
      [
        "wor",
        "ry"
      ],
      [
        "re",
        "ally"
      ],
      [
        "look",
        "s"
      ],
      [
        "co",
        "l"
      ],
      [
        "i",
        "ke"
      ],
      [
        "an",
        "other"
      ],
      [
        "m",
        "ess"
      ],
      [
        "car",
        "s"
      ],
      [
        "Ben",
        "ny"
      ],
      [
        "b",
        "ar"
      ],
      [
        "him",
        "self"
      ],
      [
        "d",
        "uck"
      ],
      [
        "mag",
        "ic"
      ],
      [
        "d",
        "one"
      ],
      [
        "ma",
        "king"
      ],
      [
        "blo",
        "cks"
      ],
      [
        "b",
        "a"
      ],
      [
        "p",
        "ed"
      ],
      [
        "The",
        "re"
      ],
      [
        "p",
        "ond"
      ],
      [
        "pp",
        "y"
      ],
      [
        "ck",
        "ed"
      ],
      [
        "p",
        "rom"
      ],
      [
        "b",
        "ag"
      ],
      [
        "n",
        "ts"
      ],
      [
        "ho",
        "le"
      ],
      [
        "to",
        "uch"
      ],
      [
        "ha",
        "ir"
      ],
      [
        "be",
        "gan"
      ],
      [
        "y",
        "el"
      ],
      [
        "h",
        "ind"
      ],
      [
        "gre",
        "en"
      ],
      [
        "S",
        "ally"
      ],
      [
        "ho",
        "ld"
      ],
      [
        "co",
        "ol"
      ],
      [
        "ar",
        "y"
      ],
      [
        "F",
        "in"
      ],
      [
        "f",
        "ro"
      ],
      [
        "s",
        "y"
      ],
      [
        "wa",
        "ved"
      ],
      [
        "b",
        "unny"
      ],
      [
        "d",
        "ri"
      ],
      [
        "w",
        "ished"
      ],
      [
        "ill",
        "ed"
      ],
      [
        "than",
        "k"
      ],
      [
        "wh",
        "y"
      ],
      [
        "flo",
        "or"
      ],
      [
        "pare",
        "nts"
      ],
      [
        "ol",
        "ly"
      ],
      [
        "a",
        "ge"
      ],
      [
        "yel",
        "low"
      ],
      [
        "be",
        "hind"
      ],
      [
        "s",
        "leep"
      ],
      [
        "re",
        "l"
      ],
      [
        "se",
        "en"
      ],
      [
        "f",
        "arm"
      ],
      [
        "ca",
        "st"
      ],
      [
        "clo",
        "se"
      ],
      [
        "y",
        "ard"
      ],
      [
        "Tom",
        "my"
      ],
      [
        "p",
        "ro"
      ],
      [
        "less",
        "on"
      ],
      [
        "sw",
        "ing"
      ],
      [
        "clim",
        "b"
      ],
      [
        "lo",
        "st"
      ],
      [
        "tre",
        "es"
      ],
      [
        "g",
        "er"
      ],
      [
        "pe",
        "t"
      ],
      [
        "like",
        "s"
      ],
      [
        "sw",
        "im"
      ],
      [
        "remember",
        "ed"
      ],
      [
        "m",
        "um"
      ],
      [
        "we",
        "ar"
      ],
      [
        "one",
        "y"
      ],
      [
        "sa",
        "t"
      ],
      [
        "run",
        "ning"
      ],
      [
        "on",
        "s"
      ],
      [
        "and",
        "y"
      ],
      [
        "wor",
        "ked"
      ],
      [
        "fu",
        "ll"
      ],
      [
        "ig",
        "n"
      ],
      [
        "happ",
        "ily"
      ],
      [
        "f",
        "ar"
      ],
      [
        "s",
        "now"
      ],
      [
        "surpr",
        "ise"
      ],
      [
        "ho",
        "pped"
      ],
      [
        "need",
        "ed"
      ],
      [
        "dre",
        "am"
      ],
      [
        "butter",
        "fly"
      ],
      [
        "p",
        "le"
      ],
      [
        "at",
        "ion"
      ],
      [
        "turn",
        "ed"
      ],
      [
        "wind",
        "ow"
      ],
      [
        "st",
        "re"
      ],
      [
        "h",
        "ill"
      ],
      [
        "m",
        "ouse"
      ],
      [
        "d",
        "ark"
      ],
      [
        "do",
        "ing"
      ],
      [
        "m",
        "ou"
      ],
      [
        "le",
        "ft"
      ],
      [
        "w",
        "rong"
      ],
      [
        "Hel",
        "lo"
      ],
      [
        "a",
        "isy"
      ],
      [
        "m",
        "ar"
      ],
      [
        "A",
        "t"
      ],
      [
        "s",
        "low"
      ],
      [
        "ra",
        "ce"
      ],
      [
        "o",
        "o"
      ],
      [
        "wo",
        "od"
      ],
      [
        "bu",
        "y"
      ],
      [
        "en",
        "s"
      ],
      [
        "fro",
        "g"
      ],
      [
        "c",
        "la"
      ],
      [
        "h",
        "ung"
      ],
      [
        "fa",
        "ir"
      ],
      [
        "he",
        "ld"
      ],
      [
        "h",
        "id"
      ],
      [
        "t",
        "le"
      ],
      [
        "follow",
        "ed"
      ],
      [
        "b",
        "ug"
      ],
      [
        "surpr",
        "ised"
      ],
      [
        "enjoy",
        "ed"
      ],
      [
        "careful",
        "ly"
      ],
      [
        "B",
        "illy"
      ],
      [
        "v",
        "is"
      ],
      [
        "t",
        "ri"
      ],
      [
        "ab",
        "y"
      ],
      [
        "con",
        "tin"
      ],
      [
        "E",
        "m"
      ],
      [
        "d",
        "ir"
      ],
      [
        "p",
        "lease"
      ],
      [
        "t",
        "all"
      ],
      [
        "fin",
        "ished"
      ],
      [
        "e",
        "m"
      ],
      [
        "year",
        "s"
      ],
      [
        "her",
        "self"
      ],
      [
        "ar",
        "ri"
      ],
      [
        "ch",
        "il"
      ],
      [
        "friend",
        "ly"
      ],
      [
        "u",
        "ed"
      ],
      [
        "T",
        "o"
      ],
      [
        "gr",
        "andma"
      ],
      [
        "dre",
        "n"
      ],
      [
        "an",
        "ge"
      ],
      [
        "m",
        "ight"
      ],
      [
        "st",
        "ran"
      ],
      [
        "\"",
        "."
      ],
      [
        "under",
        "stand"
      ],
      [
        "B",
        "e"
      ],
      [
        "bo",
        "t"
      ],
      [
        "chil",
        "dren"
      ],
      [
        "any",
        "thing"
      ],
      [
        "s",
        "pot"
      ],
      [
        "for",
        "got"
      ],
      [
        "ci",
        "ous"
      ],
      [
        "Fin",
        "ally"
      ],
      [
        "f",
        "r"
      ],
      [
        "i",
        "ent"
      ],
      [
        "s",
        "po"
      ],
      [
        "ok",
        "en"
      ],
      [
        "as",
        "ure"
      ],
      [
        "J",
        "en"
      ],
      [
        "c",
        "ra"
      ],
      [
        "color",
        "s"
      ],
      [
        "ho",
        "t"
      ],
      [
        "cast",
        "le"
      ],
      [
        "bu",
        "ild"
      ],
      [
        "in",
        "ed"
      ],
      [
        "D",
        "aisy"
      ],
      [
        "br",
        "oken"
      ],
      [
        "g",
        "l"
      ],
      [
        "s",
        "it"
      ],
      [
        "want",
        "s"
      ],
      [
        "ie",
        "ld"
      ],
      [
        "s",
        "ong"
      ],
      [
        "ag",
        "re"
      ],
      [
        "f",
        "ight"
      ],
      [
        "wonder",
        "ful"
      ],
      [
        "uff",
        "y"
      ],
      [
        "some",
        "one"
      ],
      [
        "leave",
        "s"
      ],
      [
        "contin",
        "ued"
      ],
      [
        "g",
        "ent"
      ],
      [
        "ar",
        "t"
      ],
      [
        "arri",
        "ved"
      ],
      [
        "fu",
        "r"
      ],
      [
        "t",
        "ight"
      ],
      [
        "J",
        "im"
      ],
      [
        "l",
        "and"
      ],
      [
        "li",
        "on"
      ],
      [
        "deli",
        "cious"
      ],
      [
        "ce",
        "ss"
      ],
      [
        "r",
        "ow"
      ],
      [
        "y",
        "e"
      ],
      [
        "er",
        "ous"
      ],
      [
        "O",
        "K"
      ],
      [
        "el",
        "se"
      ],
      [
        "Wh",
        "y"
      ],
      [
        "g",
        "one"
      ],
      [
        "mo",
        "ther"
      ],
      [
        "agre",
        "ed"
      ],
      [
        "mo",
        "st"
      ],
      [
        "d",
        "r"
      ],
      [
        "f",
        "ru"
      ],
      [
        "f",
        "all"
      ],
      [
        "ro",
        "ss"
      ],
      [
        "cook",
        "ies"
      ],
      [
        "M",
        "olly"
      ],
      [
        "p",
        "ink"
      ],
      [
        "bre",
        "ak"
      ],
      [
        "m",
        "at"
      ],
      [
        "A",
        "my"
      ],
      [
        "book",
        "s"
      ],
      [
        "ward",
        "s"
      ],
      [
        "p",
        "at"
      ],
      [
        "cre",
        "at"
      ],
      [
        "smil",
        "es"
      ],
      [
        "po",
        "in"
      ],
      [
        "get",
        "ting"
      ],
      [
        "G",
        "o"
      ],
      [
        "mu",
        "s"
      ],
      [
        "picture",
        "s"
      ],
      [
        "f",
        "illed"
      ],
      [
        "sm",
        "e"
      ],
      [
        "sa",
        "il"
      ],
      [
        "w",
        "he"
      ],
      [
        "tal",
        "k"
      ],
      [
        "din",
        "ner"
      ],
      [
        "b",
        "aby"
      ],
      [
        "we",
        "t"
      ],
      [
        "ta",
        "il"
      ],
      [
        "ask",
        "s"
      ],
      [
        "a",
        "ther"
      ],
      [
        "wh",
        "ite"
      ],
      [
        "co",
        "ver"
      ],
      [
        "scar",
        "y"
      ],
      [
        "en",
        "ce"
      ],
      [
        "ic",
        "y"
      ],
      [
        "hung",
        "ry"
      ],
      [
        "to",
        "n"
      ],
      [
        "amaz",
        "ing"
      ],
      [
        "ve",
        "s"
      ],
      [
        "make",
        "s"
      ],
      [
        "o",
        "t"
      ],
      [
        "some",
        "times"
      ],
      [
        "ir",
        "rel"
      ],
      [
        "c",
        "ed"
      ],
      [
        "ta",
        "st"
      ],
      [
        "mor",
        "ning"
      ],
      [
        "g",
        "on"
      ],
      [
        "a",
        "v"
      ],
      [
        "ou",
        "p"
      ],
      [
        "j",
        "u"
      ],
      [
        "k",
        "ay"
      ],
      [
        "mom",
        "ent"
      ],
      [
        "other",
        "s"
      ],
      [
        "list",
        "ened"
      ],
      [
        "dad",
        "dy"
      ],
      [
        "clim",
        "bed"
      ],
      [
        "me",
        "t"
      ],
      [
        "p",
        "es"
      ],
      [
        "J",
        "ill"
      ],
      [
        "squ",
        "irrel"
      ],
      [
        "the",
        "s"
      ],
      [
        "S",
        "ome"
      ],
      [
        "pu",
        "ppy"
      ],
      [
        "bal",
        "lo"
      ],
      [
        "G",
        "r"
      ],
      [
        "p",
        "ack"
      ],
      [
        "try",
        "ing"
      ],
      [
        "clo",
        "thes"
      ],
      [
        "en",
        "ough"
      ],
      [
        "stay",
        "ed"
      ],
      [
        "fin",
        "ally"
      ],
      [
        "s",
        "pl"
      ],
      [
        "C",
        "ome"
      ],
      [
        "z",
        "z"
      ],
      [
        "b",
        "ike"
      ],
      [
        "fe",
        "ct"
      ],
      [
        "wa",
        "ited"
      ],
      [
        "br",
        "ought"
      ],
      [
        "u",
        "b"
      ],
      [
        "mus",
        "ic"
      ],
      [
        "s",
        "is"
      ],
      [
        "fe",
        "w"
      ],
      [
        "m",
        "i"
      ],
      [
        "per",
        "fect"
      ],
      [
        "se",
        "s"
      ],
      [
        "d",
        "ang"
      ],
      [
        "pl",
        "ain"
      ],
      [
        "ted",
        "dy"
      ],
      [
        "every",
        "thing"
      ],
      [
        "a",
        "f"
      ],
      [
        "s",
        "illy"
      ],
      [
        "ll",
        "s"
      ],
      [
        "se",
        "ar"
      ],
      [
        "al",
        "one"
      ],
      [
        "be",
        "ach"
      ],
      [
        "r",
        "ide"
      ],
      [
        "was",
        "n"
      ],
      [
        "z",
        "e"
      ],
      [
        "uck",
        "y"
      ],
      [
        "t",
        "rain"
      ],
      [
        "gr",
        "ow"
      ],
      [
        "j",
        "e"
      ],
      [
        "i",
        "ous"
      ],
      [
        "g",
        "g"
      ],
      [
        "at",
        "ed"
      ],
      [
        "h",
        "ide"
      ],
      [
        "sis",
        "ter"
      ],
      [
        "pp",
        "ing"
      ],
      [
        "na",
        "p"
      ],
      [
        "O",
        "h"
      ],
      [
        "s",
        "park"
      ],
      [
        "dan",
        "ce"
      ],
      [
        "stran",
        "ge"
      ],
      [
        "So",
        "on"
      ],
      [
        "amaz",
        "ed"
      ],
      [
        "g",
        "i"
      ],
      [
        "l",
        "ake"
      ],
      [
        "an",
        "ce"
      ],
      [
        "think",
        "s"
      ],
      [
        "w",
        "his"
      ],
      [
        "run",
        "s"
      ],
      [
        "cl",
        "oud"
      ],
      [
        "app",
        "ear"
      ],
      [
        "th",
        "y"
      ],
      [
        "wood",
        "s"
      ],
      [
        "pu",
        "lled"
      ],
      [
        "pl",
        "an"
      ],
      [
        "de",
        "ep"
      ],
      [
        "o",
        "se"
      ],
      [
        "c",
        "tor"
      ],
      [
        "A",
        "ll"
      ],
      [
        "is",
        "es"
      ],
      [
        "p",
        "en"
      ],
      [
        "tre",
        "asure"
      ],
      [
        "ba",
        "th"
      ],
      [
        "p",
        "ers"
      ],
      [
        "to",
        "wards"
      ],
      [
        "vis",
        "it"
      ],
      [
        "li",
        "ving"
      ],
      [
        "l",
        "ar"
      ],
      [
        "fly",
        "ing"
      ],
      [
        "S",
        "ure"
      ],
      [
        "sha",
        "red"
      ],
      [
        "am",
        "es"
      ],
      [
        "O",
        "kay"
      ],
      [
        "c",
        "andy"
      ],
      [
        "own",
        "er"
      ],
      [
        "par",
        "ty"
      ],
      [
        "piece",
        "s"
      ],
      [
        "prom",
        "ised"
      ],
      [
        "mou",
        "th"
      ],
      [
        "big",
        "ger"
      ],
      [
        "b",
        "ran"
      ],
      [
        "gr",
        "ate"
      ],
      [
        "f",
        "ield"
      ],
      [
        "grate",
        "ful"
      ],
      [
        "F",
        "l"
      ],
      [
        "M",
        "ama"
      ],
      [
        "doll",
        "s"
      ],
      [
        "c",
        "up"
      ],
      [
        "h",
        "or"
      ],
      [
        "jo",
        "b"
      ],
      [
        "every",
        "where"
      ],
      [
        "mor",
        "al"
      ],
      [
        "fo",
        "x"
      ],
      [
        "bro",
        "ke"
      ],
      [
        "bo",
        "ard"
      ],
      [
        "p",
        "s"
      ],
      [
        "p",
        "ur"
      ],
      [
        "tre",
        "at"
      ],
      [
        "m",
        "oney"
      ],
      [
        "th",
        "re"
      ],
      [
        "sn",
        "ack"
      ],
      [
        "fast",
        "er"
      ],
      [
        "Fl",
        "uffy"
      ],
      [
        "g",
        "if"
      ],
      [
        "wor",
        "ried"
      ],
      [
        "pl",
        "ant"
      ],
      [
        "help",
        "ing"
      ],
      [
        "k",
        "is"
      ],
      [
        "M",
        "r"
      ],
      [
        "m",
        "ind"
      ],
      [
        "bow",
        "l"
      ],
      [
        "i",
        "et"
      ],
      [
        "jo",
        "in"
      ],
      [
        "cha",
        "ir"
      ],
      [
        "m",
        "ent"
      ],
      [
        "do",
        "ctor"
      ],
      [
        "he",
        "s"
      ],
      [
        "bl",
        "ack"
      ],
      [
        "e",
        "le"
      ],
      [
        "li",
        "ce"
      ],
      [
        "s",
        "uch"
      ],
      [
        "cry",
        "ing"
      ],
      [
        "i",
        "ch"
      ],
      [
        "mi",
        "x"
      ],
      [
        "he",
        "av"
      ],
      [
        "qu",
        "iet"
      ],
      [
        "w",
        "r"
      ],
      [
        "bl",
        "an"
      ],
      [
        "an",
        "sw"
      ],
      [
        "re",
        "ach"
      ],
      [
        "dang",
        "erous"
      ],
      [
        "s",
        "cream"
      ],
      [
        "be",
        "lie"
      ],
      [
        "color",
        "ful"
      ],
      [
        "wor",
        "ds"
      ],
      [
        "sm",
        "art"
      ],
      [
        "ex",
        "plain"
      ],
      [
        "tw",
        "ins"
      ],
      [
        "d",
        "ry"
      ],
      [
        "ro",
        "t"
      ],
      [
        "slow",
        "ly"
      ],
      [
        "s",
        "ign"
      ],
      [
        "J",
        "ust"
      ],
      [
        "thre",
        "w"
      ],
      [
        "H",
        "i"
      ],
      [
        "dra",
        "gon"
      ],
      [
        "ig",
        "g"
      ],
      [
        "farm",
        "er"
      ],
      [
        "u",
        "ally"
      ],
      [
        "magic",
        "al"
      ],
      [
        "dir",
        "ty"
      ],
      [
        "ballo",
        "on"
      ],
      [
        "feel",
        "s"
      ],
      [
        "s",
        "wa"
      ],
      [
        "cid",
        "ent"
      ],
      [
        "Dad",
        "dy"
      ],
      [
        "a",
        "p"
      ],
      [
        "d",
        "es"
      ],
      [
        "clo",
        "sed"
      ],
      [
        "tow",
        "er"
      ],
      [
        "star",
        "t"
      ],
      [
        "ri",
        "ver"
      ],
      [
        "heav",
        "y"
      ],
      [
        "cr",
        "ay"
      ],
      [
        "ac",
        "cident"
      ],
      [
        "cho",
        "ol"
      ],
      [
        "swa",
        "m"
      ],
      [
        "st",
        "r"
      ],
      [
        "our",
        "se"
      ],
      [
        "mon",
        "ster"
      ],
      [
        "s",
        "chool"
      ],
      [
        "prin",
        "cess"
      ],
      [
        "ho",
        "ped"
      ],
      [
        "b",
        "as"
      ],
      [
        "eat",
        "ing"
      ],
      [
        "ste",
        "pped"
      ],
      [
        "sa",
        "me"
      ],
      [
        "ll",
        "a"
      ],
      [
        "Gr",
        "andma"
      ],
      [
        "st",
        "uck"
      ],
      [
        "s",
        "c"
      ],
      [
        "un",
        "ch"
      ],
      [
        "tow",
        "n"
      ],
      [
        "w",
        "in"
      ],
      [
        "sha",
        "r"
      ],
      [
        "p",
        "ow"
      ],
      [
        "pre",
        "ss"
      ],
      [
        "ph",
        "one"
      ],
      [
        "n",
        "g"
      ],
      [
        "but",
        "ton"
      ],
      [
        "te",
        "ac"
      ],
      [
        "he",
        "al"
      ],
      [
        "take",
        "s"
      ],
      [
        "M",
        "ary"
      ],
      [
        "pain",
        "t"
      ],
      [
        "P",
        "lease"
      ],
      [
        "would",
        "n"
      ],
      [
        "f",
        "ence"
      ],
      [
        "pr",
        "ay"
      ],
      [
        "wa",
        "ll"
      ],
      [
        "b",
        "ite"
      ],
      [
        "r",
        "ound"
      ],
      [
        "t",
        "ent"
      ],
      [
        "Jim",
        "my"
      ],
      [
        "h",
        "ig"
      ],
      [
        "che",
        "s"
      ],
      [
        "as",
        "sed"
      ],
      [
        "com",
        "for"
      ],
      [
        "turn",
        "s"
      ],
      [
        "k",
        "no"
      ],
      [
        "ac",
        "ross"
      ],
      [
        "pu",
        "shed"
      ],
      [
        "blan",
        "ket"
      ],
      [
        "e",
        "k"
      ],
      [
        "Em",
        "ma"
      ],
      [
        "fair",
        "y"
      ],
      [
        "sw",
        "ings"
      ],
      [
        "with",
        "out"
      ],
      [
        "no",
        "ises"
      ],
      [
        "br",
        "own"
      ],
      [
        "mu",
        "st"
      ],
      [
        "pa",
        "st"
      ],
      [
        "bas",
        "ket"
      ],
      [
        "c",
        "ourse"
      ],
      [
        "b",
        "en"
      ],
      [
        "l",
        "one"
      ],
      [
        "M",
        "um"
      ],
      [
        "c",
        "y"
      ],
      [
        "m",
        "in"
      ],
      [
        "to",
        "day"
      ],
      [
        "pl",
        "ane"
      ],
      [
        "cla",
        "pped"
      ],
      [
        "ste",
        "ad"
      ],
      [
        "wel",
        "come"
      ],
      [
        "shin",
        "e"
      ],
      [
        "thr",
        "ow"
      ],
      [
        "appear",
        "ed"
      ],
      [
        "up",
        "set"
      ],
      [
        "lone",
        "ly"
      ],
      [
        "s",
        "oup"
      ],
      [
        "be",
        "e"
      ],
      [
        "se",
        "a"
      ],
      [
        "teac",
        "her"
      ],
      [
        "belie",
        "ve"
      ],
      [
        "it",
        "ing"
      ],
      [
        "w",
        "ish"
      ],
      [
        "w",
        "ings"
      ],
      [
        "hug",
        "s"
      ],
      [
        "dro",
        "pped"
      ],
      [
        "gent",
        "le"
      ],
      [
        "le",
        "g"
      ],
      [
        "f",
        "ree"
      ],
      [
        "adventure",
        "s"
      ],
      [
        "g",
        "ames"
      ],
      [
        "sh",
        "op"
      ],
      [
        "L",
        "ater"
      ],
      [
        "ha",
        "r"
      ],
      [
        "ru",
        "b"
      ],
      [
        "pp",
        "er"
      ],
      [
        "ch",
        "ild"
      ],
      [
        "The",
        "ir"
      ],
      [
        "we",
        "ll"
      ],
      [
        "b",
        "ble"
      ],
      [
        "ow",
        "l"
      ],
      [
        "sto",
        "od"
      ],
      [
        "dro",
        "ve"
      ],
      [
        "k",
        "ne"
      ],
      [
        "br",
        "ing"
      ],
      [
        "se",
        "cre"
      ],
      [
        "hig",
        "her"
      ],
      [
        "che",
        "ered"
      ],
      [
        "d",
        "i"
      ],
      [
        "j",
        "our"
      ],
      [
        "s",
        "ang"
      ],
      [
        "dr",
        "ink"
      ],
      [
        "ph",
        "ant"
      ],
      [
        "it",
        "ch"
      ],
      [
        "mo",
        "ved"
      ],
      [
        "ro",
        "cks"
      ],
      [
        "explain",
        "ed"
      ],
      [
        "na",
        "ught"
      ],
      [
        "c",
        "er"
      ],
      [
        "j",
        "ar"
      ],
      [
        "happ",
        "en"
      ],
      [
        "In",
        "side"
      ],
      [
        "for",
        "get"
      ],
      [
        "naught",
        "y"
      ],
      [
        "T",
        "weet"
      ],
      [
        "tr",
        "ou"
      ],
      [
        "th",
        "ough"
      ],
      [
        "w",
        "ise"
      ],
      [
        "pu",
        "ll"
      ],
      [
        "sho",
        "es"
      ],
      [
        "l",
        "unch"
      ],
      [
        "wo",
        "ke"
      ],
      [
        "vent",
        "ually"
      ],
      [
        "ne",
        "y"
      ],
      [
        "s",
        "ent"
      ],
      [
        "ele",
        "phant"
      ],
      [
        "long",
        "er"
      ],
      [
        "nt",
        "ain"
      ],
      [
        "s",
        "u"
      ],
      [
        "hear",
        "t"
      ],
      [
        "ne",
        "ck"
      ],
      [
        "m",
        "ine"
      ],
      [
        "or",
        "ange"
      ],
      [
        "ne",
        "igh"
      ],
      [
        "l",
        "ate"
      ],
      [
        "el",
        "ly"
      ],
      [
        "itt",
        "ing"
      ],
      [
        "sto",
        "ries"
      ],
      [
        "h",
        "it"
      ],
      [
        "be",
        "long"
      ],
      [
        "back",
        "yard"
      ],
      [
        "o",
        "om"
      ],
      [
        "ca",
        "ught"
      ],
      [
        "app",
        "le"
      ],
      [
        "M",
        "y"
      ],
      [
        "s",
        "uddenly"
      ],
      [
        "ta",
        "king"
      ],
      [
        "s",
        "ick"
      ],
      [
        "bu",
        "cket"
      ],
      [
        "i",
        "ble"
      ],
      [
        "come",
        "s"
      ],
      [
        "P",
        "e"
      ],
      [
        "b",
        "and"
      ],
      [
        "our",
        "s"
      ],
      [
        "l",
        "ing"
      ],
      [
        "po",
        "l"
      ],
      [
        "ben",
        "ch"
      ],
      [
        "po",
        "cket"
      ],
      [
        "fu",
        "sed"
      ],
      [
        "m",
        "il"
      ],
      [
        "star",
        "s"
      ],
      [
        "d",
        "a"
      ],
      [
        "p",
        "ig"
      ],
      [
        "v",
        "al"
      ],
      [
        "ou",
        "n"
      ],
      [
        "rain",
        "bow"
      ],
      [
        "p",
        "il"
      ],
      [
        "ad",
        "d"
      ],
      [
        "you",
        "ng"
      ],
      [
        "d",
        "ist"
      ],
      [
        "n",
        "um"
      ],
      [
        "dri",
        "ver"
      ],
      [
        "ju",
        "ice"
      ],
      [
        "bran",
        "ch"
      ],
      [
        "al",
        "ong"
      ],
      [
        "c",
        "al"
      ],
      [
        "near",
        "by"
      ],
      [
        "itt",
        "ens"
      ],
      [
        "am",
        "p"
      ],
      [
        "sh",
        "ook"
      ],
      [
        "sto",
        "ne"
      ],
      [
        "explo",
        "ring"
      ],
      [
        "f",
        "ing"
      ],
      [
        "see",
        "med"
      ],
      [
        "cou",
        "nt"
      ],
      [
        "secre",
        "t"
      ],
      [
        "id",
        "ge"
      ],
      [
        "Sam",
        "my"
      ],
      [
        "L",
        "e"
      ],
      [
        "er",
        "ful"
      ],
      [
        "sha",
        "pes"
      ],
      [
        "no",
        "se"
      ],
      [
        "hel",
        "lo"
      ],
      [
        "e",
        "se"
      ],
      [
        "sing",
        "ing"
      ],
      [
        "ra",
        "id"
      ],
      [
        "tin",
        "y"
      ],
      [
        "af",
        "raid"
      ],
      [
        "mon",
        "key"
      ],
      [
        "ne",
        "st"
      ],
      [
        "k",
        "ite"
      ],
      [
        "bu",
        "sy"
      ],
      [
        "ma",
        "il"
      ],
      [
        "ion",
        "s"
      ],
      [
        "c",
        "ing"
      ],
      [
        "par",
        "t"
      ],
      [
        "s",
        "co"
      ],
      [
        "wonder",
        "ed"
      ],
      [
        "Go",
        "od"
      ],
      [
        "p",
        "ra"
      ],
      [
        "re",
        "lie"
      ],
      [
        "que",
        "st"
      ],
      [
        "l",
        "ay"
      ],
      [
        "co",
        "at"
      ],
      [
        "car",
        "ry"
      ],
      [
        "accident",
        "ally"
      ],
      [
        "cover",
        "ed"
      ],
      [
        "c",
        "ir"
      ],
      [
        "pu",
        "sh"
      ],
      [
        "arm",
        "s"
      ],
      [
        "hold",
        "ing"
      ],
      [
        "sound",
        "s"
      ],
      [
        "H",
        "ow"
      ],
      [
        "ne",
        "t"
      ],
      [
        "love",
        "s"
      ],
      [
        "m",
        "ing"
      ],
      [
        "e",
        "gg"
      ],
      [
        "th",
        "day"
      ],
      [
        "cut",
        "e"
      ],
      [
        "le",
        "tter"
      ],
      [
        "O",
        "f"
      ],
      [
        "f",
        "it"
      ],
      [
        "sh",
        "ip"
      ],
      [
        "gif",
        "t"
      ],
      [
        "give",
        "s"
      ],
      [
        "i",
        "re"
      ],
      [
        "bl",
        "ed"
      ],
      [
        "bo",
        "dy"
      ],
      [
        "s",
        "itting"
      ],
      [
        "stre",
        "et"
      ],
      [
        "pat",
        "ient"
      ],
      [
        "w",
        "ra"
      ],
      [
        "snow",
        "man"
      ],
      [
        "a",
        "u"
      ],
      [
        "day",
        "s"
      ],
      [
        "mil",
        "k"
      ],
      [
        "g",
        "ged"
      ],
      [
        "bre",
        "a"
      ],
      [
        "ar",
        "s"
      ],
      [
        "che",
        "ese"
      ],
      [
        "bir",
        "thday"
      ],
      [
        "cra",
        "w"
      ],
      [
        "ho",
        "pe"
      ],
      [
        "sto",
        "rm"
      ],
      [
        "she",
        "s"
      ],
      [
        "li",
        "ve"
      ],
      [
        "co",
        "zy"
      ],
      [
        "fore",
        "ver"
      ],
      [
        "im",
        "ag"
      ],
      [
        "b",
        "oun"
      ],
      [
        "pe",
        "ace"
      ],
      [
        "laugh",
        "ing"
      ],
      [
        "cou",
        "n"
      ],
      [
        "pur",
        "ple"
      ],
      [
        "relie",
        "ved"
      ],
      [
        "li",
        "fe"
      ],
      [
        "itt",
        "en"
      ],
      [
        "ught",
        "er"
      ],
      [
        "in",
        "te"
      ],
      [
        "sun",
        "ny"
      ],
      [
        "c",
        "ow"
      ],
      [
        "i",
        "er"
      ],
      [
        "in",
        "stead"
      ],
      [
        "no",
        "thing"
      ],
      [
        "p",
        "udd"
      ],
      [
        "ve",
        "l"
      ],
      [
        "pu",
        "zz"
      ],
      [
        "inte",
        "rest"
      ],
      [
        "m",
        "er"
      ],
      [
        "ad",
        "e"
      ],
      [
        "T",
        "ed"
      ],
      [
        "b",
        "read"
      ],
      [
        "h",
        "u"
      ],
      [
        "f",
        "an"
      ],
      [
        "ro",
        "pe"
      ],
      [
        "s",
        "li"
      ],
      [
        "ug",
        "g"
      ],
      [
        "prom",
        "ise"
      ],
      [
        "w",
        "and"
      ],
      [
        "itt",
        "y"
      ],
      [
        "da",
        "ughter"
      ],
      [
        "l",
        "ater"
      ],
      [
        "He",
        "y"
      ],
      [
        "M",
        "ittens"
      ],
      [
        "i",
        "an"
      ],
      [
        "k",
        "ick"
      ],
      [
        "Jen",
        "ny"
      ],
      [
        "a",
        "se"
      ],
      [
        "sun",
        "shine"
      ],
      [
        "ro",
        "ad"
      ],
      [
        "e",
        "as"
      ],
      [
        "l",
        "ucky"
      ],
      [
        "any",
        "one"
      ],
      [
        "cray",
        "ons"
      ],
      [
        "m",
        "ach"
      ],
      [
        "s",
        "ug"
      ],
      [
        "t",
        "un"
      ],
      [
        "sear",
        "ched"
      ],
      [
        "ro",
        "ar"
      ],
      [
        "to",
        "uc"
      ],
      [
        "exc",
        "iting"
      ],
      [
        "sand",
        "w"
      ],
      [
        "touc",
        "hed"
      ],
      [
        "smil",
        "ing"
      ],
      [
        "me",
        "et"
      ],
      [
        "hu",
        "ge"
      ],
      [
        "ir",
        "t"
      ],
      [
        "z",
        "oom"
      ],
      [
        "wa",
        "r"
      ],
      [
        "ne",
        "ss"
      ],
      [
        "duck",
        "s"
      ],
      [
        "car",
        "d"
      ],
      [
        "dan",
        "ced"
      ],
      [
        "poin",
        "ted"
      ],
      [
        "b",
        "ru"
      ],
      [
        "iz",
        "e"
      ],
      [
        "Some",
        "times"
      ],
      [
        "ac",
        "t"
      ],
      [
        "bot",
        "tle"
      ],
      [
        "ro",
        "ll"
      ],
      [
        "p",
        "ass"
      ],
      [
        "ca",
        "ve"
      ],
      [
        "n",
        "ic"
      ],
      [
        "shar",
        "p"
      ],
      [
        "ble",
        "m"
      ],
      [
        "b",
        "ought"
      ],
      [
        "was",
        "h"
      ],
      [
        "un",
        "i"
      ],
      [
        "pro",
        "blem"
      ],
      [
        "creat",
        "ure"
      ],
      [
        "tal",
        "ked"
      ],
      [
        "bu",
        "sh"
      ],
      [
        "swim",
        "ming"
      ],
      [
        "comfor",
        "table"
      ],
      [
        "jour",
        "ney"
      ],
      [
        "sme",
        "lled"
      ],
      [
        "ge",
        "st"
      ],
      [
        "pre",
        "sent"
      ],
      [
        "W",
        "ith"
      ],
      [
        "lo",
        "g"
      ],
      [
        "watch",
        "ing"
      ],
      [
        "sn",
        "ake"
      ],
      [
        "at",
        "t"
      ],
      [
        "g",
        "igg"
      ],
      [
        "g",
        "en"
      ],
      [
        "tast",
        "y"
      ],
      [
        "re",
        "spe"
      ],
      [
        "on",
        "to"
      ],
      [
        "wor",
        "d"
      ],
      [
        "gr",
        "and"
      ],
      [
        "ro",
        "lled"
      ],
      [
        "wr",
        "ite"
      ],
      [
        "is",
        "a"
      ],
      [
        "trou",
        "ble"
      ],
      [
        "spl",
        "ash"
      ],
      [
        "pers",
        "on"
      ],
      [
        "col",
        "le"
      ],
      [
        "heal",
        "thy"
      ],
      [
        "wor",
        "m"
      ],
      [
        "gi",
        "ant"
      ],
      [
        "w",
        "ide"
      ],
      [
        "interest",
        "ing"
      ],
      [
        "co",
        "in"
      ],
      [
        "cloud",
        "s"
      ],
      [
        "fe",
        "ather"
      ],
      [
        "v",
        "ill"
      ],
      [
        "put",
        "s"
      ],
      [
        "cou",
        "ch"
      ],
      [
        "W",
        "here"
      ],
      [
        "sp",
        "id"
      ],
      [
        "app",
        "les"
      ],
      [
        "pra",
        "ct"
      ],
      [
        "A",
        "re"
      ],
      [
        "fr",
        "on"
      ],
      [
        "whe",
        "el"
      ],
      [
        "neigh",
        "bor"
      ],
      [
        "de",
        "st"
      ],
      [
        "love",
        "ly"
      ],
      [
        "h",
        "oney"
      ],
      [
        "cir",
        "cle"
      ],
      [
        "fron",
        "t"
      ],
      [
        "L",
        "isa"
      ],
      [
        "p",
        "an"
      ],
      [
        "go",
        "es"
      ],
      [
        "respe",
        "ct"
      ],
      [
        "sp",
        "in"
      ],
      [
        "mis",
        "s"
      ],
      [
        "face",
        "s"
      ],
      [
        "pretend",
        "ed"
      ],
      [
        "n",
        "ed"
      ],
      [
        "p",
        "ile"
      ],
      [
        "sa",
        "ck"
      ],
      [
        "spo",
        "on"
      ],
      [
        "iz",
        "z"
      ],
      [
        "fo",
        "ot"
      ],
      [
        "pa",
        "th"
      ],
      [
        "lad",
        "der"
      ],
      [
        "shin",
        "ing"
      ],
      [
        "a",
        "st"
      ],
      [
        "kne",
        "e"
      ],
      [
        "or",
        "gan"
      ],
      [
        "s",
        "uc"
      ],
      [
        "cle",
        "ver"
      ],
      [
        "tast",
        "ed"
      ],
      [
        "place",
        "s"
      ],
      [
        "f",
        "li"
      ],
      [
        "ho",
        "p"
      ],
      [
        "sl",
        "id"
      ],
      [
        "Em",
        "ily"
      ],
      [
        "build",
        "ing"
      ],
      [
        "o",
        "ven"
      ],
      [
        "te",
        "ach"
      ],
      [
        "e",
        "ag"
      ],
      [
        "in",
        "v"
      ],
      [
        "scream",
        "ed"
      ],
      [
        "see",
        "k"
      ],
      [
        "w",
        "ild"
      ],
      [
        "z",
        "oo"
      ],
      [
        "as",
        "leep"
      ],
      [
        "gent",
        "ly"
      ],
      [
        "wa",
        "ve"
      ],
      [
        "im",
        "press"
      ],
      [
        "th",
        "in"
      ],
      [
        "I",
        "f"
      ],
      [
        "st",
        "u"
      ],
      [
        "help",
        "ful"
      ],
      [
        "ch",
        "ing"
      ],
      [
        "fin",
        "ish"
      ],
      [
        "cor",
        "n"
      ],
      [
        "wear",
        "ing"
      ],
      [
        "too",
        "l"
      ],
      [
        "To",
        "gether"
      ],
      [
        "fru",
        "it"
      ],
      [
        "i",
        "fe"
      ],
      [
        "pro",
        "te"
      ],
      [
        "who",
        "le"
      ],
      [
        "ce",
        "an"
      ],
      [
        "mu",
        "d"
      ],
      [
        "o",
        "cean"
      ],
      [
        "u",
        "ce"
      ],
      [
        "v",
        "ie"
      ],
      [
        "lo",
        "ck"
      ],
      [
        "wh",
        "ich"
      ],
      [
        "dir",
        "t"
      ],
      [
        "pic",
        "nic"
      ],
      [
        "mat",
        "ter"
      ],
      [
        "tal",
        "king"
      ],
      [
        "cho",
        "col"
      ],
      [
        "my",
        "ster"
      ],
      [
        "for",
        "give"
      ],
      [
        "sme",
        "ll"
      ],
      [
        "spot",
        "ted"
      ],
      [
        "ber",
        "ries"
      ],
      [
        "dri",
        "ve"
      ],
      [
        "sp",
        "ent"
      ],
      [
        "g",
        "ather"
      ],
      [
        "o",
        "s"
      ],
      [
        "she",
        "lf"
      ],
      [
        "bar",
        "r"
      ],
      [
        "M",
        "ummy"
      ],
      [
        "em",
        "barr"
      ],
      [
        "hor",
        "se"
      ],
      [
        "cal",
        "m"
      ],
      [
        "con",
        "fused"
      ],
      [
        "w",
        "om"
      ],
      [
        "to",
        "mor"
      ],
      [
        "tomor",
        "row"
      ],
      [
        "la",
        "st"
      ],
      [
        "sp",
        "icy"
      ],
      [
        "wom",
        "an"
      ],
      [
        "spid",
        "er"
      ],
      [
        "wait",
        "ing"
      ],
      [
        "answ",
        "er"
      ],
      [
        "Ted",
        "dy"
      ],
      [
        "sh",
        "y"
      ],
      [
        "song",
        "s"
      ],
      [
        "fight",
        "ing"
      ],
      [
        "p",
        "ill"
      ],
      [
        "on",
        "es"
      ],
      [
        "e",
        "th"
      ],
      [
        "te",
        "st"
      ],
      [
        "clo",
        "th"
      ],
      [
        "Pe",
        "ter"
      ],
      [
        "st",
        "ep"
      ],
      [
        "as",
        "ed"
      ],
      [
        "sh",
        "r"
      ],
      [
        "ble",
        "w"
      ],
      [
        "te",
        "eth"
      ],
      [
        "He",
        "re"
      ],
      [
        "cor",
        "ner"
      ],
      [
        "fur",
        "ry"
      ],
      [
        "se",
        "at"
      ],
      [
        "chocol",
        "ate"
      ],
      [
        "mou",
        "ntain"
      ],
      [
        "or",
        "m"
      ],
      [
        "st",
        "air"
      ],
      [
        "hid",
        "ing"
      ],
      [
        "S",
        "top"
      ],
      [
        "sp",
        "it"
      ],
      [
        "jo",
        "ke"
      ],
      [
        "cor",
        "d"
      ],
      [
        "cook",
        "ie"
      ],
      [
        "d",
        "en"
      ],
      [
        "i",
        "pped"
      ],
      [
        "t",
        "ries"
      ],
      [
        "fe",
        "et"
      ],
      [
        "bug",
        "s"
      ],
      [
        "R",
        "e"
      ],
      [
        "min",
        "ut"
      ],
      [
        "p",
        "our"
      ],
      [
        "te",
        "a"
      ],
      [
        "whe",
        "never"
      ],
      [
        "ke",
        "ts"
      ],
      [
        "sm",
        "oo"
      ],
      [
        "ran",
        "k"
      ],
      [
        "ta",
        "ste"
      ],
      [
        "so",
        "l"
      ],
      [
        "la",
        "ce"
      ],
      [
        "s",
        "ne"
      ],
      [
        "s",
        "pray"
      ],
      [
        "po",
        "ol"
      ],
      [
        "fix",
        "ed"
      ],
      [
        "tri",
        "p"
      ],
      [
        "W",
        "ho"
      ],
      [
        "t",
        "ur"
      ],
      [
        "get",
        "able"
      ],
      [
        "Wh",
        "ile"
      ],
      [
        "ve",
        "getable"
      ],
      [
        "R",
        "ex"
      ],
      [
        "pudd",
        "le"
      ],
      [
        "can",
        "not"
      ],
      [
        "vill",
        "age"
      ],
      [
        "smoo",
        "th"
      ],
      [
        "b",
        "an"
      ],
      [
        "ro",
        "cket"
      ],
      [
        "car",
        "rot"
      ],
      [
        "t",
        "id"
      ],
      [
        "pre",
        "ad"
      ],
      [
        "ball",
        "s"
      ],
      [
        "puzz",
        "le"
      ],
      [
        "embarr",
        "assed"
      ],
      [
        "b",
        "urn"
      ],
      [
        "s",
        "pread"
      ],
      [
        "st",
        "ri"
      ],
      [
        "ce",
        "le"
      ],
      [
        "pa",
        "w"
      ],
      [
        "ban",
        "an"
      ],
      [
        "J",
        "ake"
      ],
      [
        "be",
        "ll"
      ],
      [
        "h",
        "um"
      ],
      [
        "her",
        "o"
      ],
      [
        "sh",
        "irt"
      ],
      [
        "hear",
        "s"
      ],
      [
        "creat",
        "ive"
      ],
      [
        "K",
        "itty"
      ],
      [
        "m",
        "aybe"
      ],
      [
        "s",
        "we"
      ],
      [
        "bar",
        "ked"
      ],
      [
        "em",
        "p"
      ],
      [
        "fo",
        "ld"
      ],
      [
        "neck",
        "lace"
      ],
      [
        "peace",
        "ful"
      ],
      [
        "emp",
        "ty"
      ],
      [
        "ch",
        "ick"
      ],
      [
        "col",
        "our"
      ],
      [
        "F",
        "red"
      ],
      [
        "e",
        "ventually"
      ],
      [
        "g",
        "y"
      ],
      [
        "t",
        "ro"
      ],
      [
        "k",
        "itten"
      ],
      [
        "bu",
        "s"
      ],
      [
        "bu",
        "bble"
      ],
      [
        "kno",
        "cked"
      ],
      [
        "B",
        "o"
      ],
      [
        "p",
        "izz"
      ],
      [
        "œ",
        "I"
      ],
      [
        "ant",
        "s"
      ],
      [
        "g",
        "un"
      ],
      [
        "se",
        "ed"
      ],
      [
        "mis",
        "sed"
      ],
      [
        "sha",
        "ke"
      ],
      [
        "tru",
        "st"
      ],
      [
        "Hel",
        "p"
      ],
      [
        "cele",
        "br"
      ],
      [
        "L",
        "ittle"
      ],
      [
        "t",
        "en"
      ],
      [
        "re",
        "mind"
      ],
      [
        "gre",
        "w"
      ],
      [
        "stre",
        "t"
      ],
      [
        "colle",
        "ct"
      ],
      [
        "stick",
        "s"
      ],
      [
        "tell",
        "s"
      ],
      [
        "tight",
        "ly"
      ],
      [
        "ru",
        "de"
      ],
      [
        "num",
        "ber"
      ],
      [
        "ig",
        "hed"
      ],
      [
        "po",
        "p"
      ],
      [
        "wo",
        "re"
      ],
      [
        "eag",
        "er"
      ],
      [
        "cle",
        "ar"
      ],
      [
        "cha",
        "sed"
      ],
      [
        "fl",
        "ut"
      ],
      [
        "ro",
        "ts"
      ],
      [
        "ra",
        "g"
      ],
      [
        "ung",
        "le"
      ],
      [
        "kis",
        "s"
      ],
      [
        "st",
        "ir"
      ],
      [
        "whis",
        "tle"
      ],
      [
        "j",
        "ungle"
      ],
      [
        "de",
        "light"
      ],
      [
        "s",
        "cre"
      ],
      [
        "prote",
        "ct"
      ],
      [
        "h",
        "ang"
      ],
      [
        "stair",
        "s"
      ],
      [
        "l",
        "ves"
      ],
      [
        "me",
        "ant"
      ],
      [
        "lar",
        "ge"
      ],
      [
        "e",
        "e"
      ],
      [
        "er",
        "a"
      ],
      [
        "John",
        "ny"
      ],
      [
        "tid",
        "y"
      ],
      [
        "pizz",
        "a"
      ],
      [
        "p",
        "in"
      ],
      [
        "t",
        "u"
      ],
      [
        "ug",
        "ly"
      ],
      [
        "de",
        "c"
      ],
      [
        "Le",
        "o"
      ],
      [
        "A",
        "lice"
      ],
      [
        "sa",
        "ve"
      ],
      [
        "car",
        "rots"
      ],
      [
        "snack",
        "s"
      ],
      [
        "ump",
        "y"
      ],
      [
        "c",
        "rab"
      ],
      [
        "o",
        "in"
      ],
      [
        "f",
        "re"
      ],
      [
        "lea",
        "f"
      ],
      [
        "spark",
        "ly"
      ],
      [
        "u",
        "ll"
      ],
      [
        "h",
        "one"
      ],
      [
        "g",
        "low"
      ],
      [
        "re",
        "s"
      ],
      [
        "end",
        "ing"
      ],
      [
        "mo",
        "on"
      ],
      [
        "self",
        "ish"
      ],
      [
        "T",
        "V"
      ],
      [
        "m",
        "ir"
      ],
      [
        "ro",
        "bot"
      ],
      [
        "no",
        "ds"
      ],
      [
        "as",
        "er"
      ],
      [
        "hid",
        "den"
      ],
      [
        "treat",
        "s"
      ],
      [
        "b",
        "low"
      ],
      [
        "le",
        "mon"
      ],
      [
        "sha",
        "ring"
      ],
      [
        "jump",
        "ing"
      ],
      [
        "p",
        "ir"
      ],
      [
        "c",
        "ur"
      ],
      [
        "ad",
        "ow"
      ],
      [
        "car",
        "ried"
      ],
      [
        "Every",
        "where"
      ],
      [
        "app",
        "oin"
      ],
      [
        "st",
        "ring"
      ],
      [
        "An",
        "n"
      ],
      [
        "pack",
        "ed"
      ],
      [
        "t",
        "ie"
      ],
      [
        "me",
        "adow"
      ],
      [
        "prin",
        "ce"
      ],
      [
        "b",
        "ers"
      ],
      [
        "ca",
        "ge"
      ],
      [
        "E",
        "ven"
      ],
      [
        "land",
        "ed"
      ],
      [
        "mach",
        "ine"
      ],
      [
        "it",
        "y"
      ],
      [
        "pol",
        "ite"
      ],
      [
        "gr",
        "ay"
      ],
      [
        "dis",
        "appoin"
      ],
      [
        "dre",
        "w"
      ],
      [
        "sleep",
        "y"
      ],
      [
        "bru",
        "sh"
      ],
      [
        "c",
        "ted"
      ],
      [
        "scar",
        "f"
      ],
      [
        "hone",
        "st"
      ],
      [
        "fru",
        "str"
      ],
      [
        "leg",
        "s"
      ],
      [
        "a",
        "il"
      ],
      [
        "the",
        "se"
      ],
      [
        "go",
        "ld"
      ],
      [
        "s",
        "up"
      ],
      [
        "c",
        "ross"
      ],
      [
        "s",
        "had"
      ],
      [
        "s",
        "que"
      ],
      [
        "u",
        "lt"
      ],
      [
        "or",
        "ry"
      ],
      [
        "fe",
        "ed"
      ],
      [
        "gr",
        "oup"
      ],
      [
        "brea",
        "th"
      ],
      [
        "a",
        "tor"
      ],
      [
        "M",
        "e"
      ],
      [
        "v",
        "ous"
      ],
      [
        "st",
        "ra"
      ],
      [
        "ye",
        "lled"
      ],
      [
        "spit",
        "al"
      ],
      [
        "l",
        "ine"
      ],
      [
        "pl",
        "ate"
      ],
      [
        "pil",
        "low"
      ],
      [
        "E",
        "l"
      ],
      [
        "c",
        "ries"
      ],
      [
        "as",
        "ha"
      ],
      [
        "for",
        "ward"
      ],
      [
        "know",
        "ing"
      ],
      [
        "bor",
        "ed"
      ],
      [
        "ho",
        "spital"
      ],
      [
        "g",
        "as"
      ],
      [
        "s",
        "our"
      ],
      [
        "al",
        "most"
      ],
      [
        "she",
        "ep"
      ],
      [
        "fan",
        "cy"
      ],
      [
        "k",
        "in"
      ],
      [
        "n",
        "ut"
      ],
      [
        "itt",
        "er"
      ],
      [
        "low",
        "n"
      ],
      [
        "fing",
        "er"
      ],
      [
        "B",
        "r"
      ],
      [
        "k",
        "n"
      ],
      [
        "de",
        "cor"
      ],
      [
        "frustr",
        "ated"
      ],
      [
        "sandw",
        "ich"
      ],
      [
        "disappoin",
        "ted"
      ],
      [
        "S",
        "orry"
      ],
      [
        "pow",
        "erful"
      ],
      [
        "vegetable",
        "s"
      ],
      [
        "You",
        "r"
      ],
      [
        "stand",
        "ing"
      ],
      [
        "c",
        "ri"
      ],
      [
        "co",
        "p"
      ],
      [
        "p",
        "ay"
      ],
      [
        "spo",
        "il"
      ],
      [
        "f",
        "il"
      ],
      [
        "on",
        "y"
      ],
      [
        "fe",
        "ar"
      ],
      [
        "g",
        "ate"
      ],
      [
        "not",
        "e"
      ],
      [
        "de",
        "ter"
      ],
      [
        "c",
        "lown"
      ],
      [
        "f",
        "la"
      ],
      [
        "to",
        "wel"
      ],
      [
        "ca",
        "pe"
      ],
      [
        "myster",
        "ious"
      ],
      [
        "get",
        "s"
      ],
      [
        "ner",
        "vous"
      ],
      [
        "S",
        "us"
      ],
      [
        "blo",
        "ck"
      ],
      [
        "plant",
        "s"
      ],
      [
        "asha",
        "med"
      ],
      [
        "p",
        "ri"
      ],
      [
        "ara",
        "ge"
      ],
      [
        "under",
        "stood"
      ],
      [
        "fli",
        "es"
      ],
      [
        "g",
        "arage"
      ],
      [
        "ru",
        "ined"
      ],
      [
        "sor",
        "s"
      ],
      [
        "sa",
        "ge"
      ],
      [
        "To",
        "day"
      ],
      [
        "gl",
        "ue"
      ],
      [
        "wa",
        "gged"
      ],
      [
        "is",
        "sors"
      ],
      [
        "ir",
        "d"
      ],
      [
        "G",
        "ive"
      ],
      [
        "v",
        "an"
      ],
      [
        "es",
        "pe"
      ],
      [
        "po",
        "lice"
      ],
      [
        "clo",
        "set"
      ],
      [
        "dan",
        "cing"
      ],
      [
        "sa",
        "ur"
      ],
      [
        "sc",
        "issors"
      ],
      [
        "eas",
        "y"
      ],
      [
        "mess",
        "y"
      ],
      [
        "ci",
        "ally"
      ],
      [
        "espe",
        "cially"
      ],
      [
        "c",
        "and"
      ],
      [
        "iz",
        "zy"
      ],
      [
        "f",
        "ill"
      ],
      [
        "cou",
        "ra"
      ],
      [
        "egg",
        "s"
      ],
      [
        "mo",
        "tor"
      ],
      [
        "ta",
        "ught"
      ],
      [
        "je",
        "wel"
      ],
      [
        "kis",
        "sed"
      ],
      [
        "B",
        "l"
      ],
      [
        "d",
        "le"
      ],
      [
        "h",
        "ours"
      ],
      [
        "j",
        "am"
      ],
      [
        "m",
        "ark"
      ],
      [
        "t",
        "ig"
      ],
      [
        "st",
        "um"
      ],
      [
        "med",
        "ic"
      ],
      [
        "p",
        "assed"
      ],
      [
        "tw",
        "irl"
      ],
      [
        "your",
        "self"
      ],
      [
        "fl",
        "ag"
      ],
      [
        "b",
        "at"
      ],
      [
        "po",
        "or"
      ],
      [
        "ens",
        "ive"
      ],
      [
        "gigg",
        "led"
      ],
      [
        "Br",
        "own"
      ],
      [
        "o",
        "saur"
      ],
      [
        "know",
        "n"
      ],
      [
        "exp",
        "ensive"
      ],
      [
        "C",
        "h"
      ],
      [
        "che",
        "st"
      ],
      [
        "spl",
        "a"
      ],
      [
        "medic",
        "ine"
      ],
      [
        "s",
        "pr"
      ],
      [
        "wa",
        "ves"
      ],
      [
        "st",
        "uff"
      ],
      [
        "S",
        "ee"
      ],
      [
        "k",
        "en"
      ],
      [
        "id",
        "dle"
      ],
      [
        "sho",
        "re"
      ],
      [
        "f",
        "ake"
      ],
      [
        "v",
        "ase"
      ],
      [
        "re",
        "turned"
      ],
      [
        "li",
        "f"
      ],
      [
        "ign",
        "or"
      ],
      [
        "f",
        "ig"
      ],
      [
        "sa",
        "ved"
      ],
      [
        "te",
        "ars"
      ],
      [
        "dr",
        "um"
      ],
      [
        "fru",
        "its"
      ],
      [
        "pain",
        "ting"
      ],
      [
        "bo",
        "ys"
      ],
      [
        "b",
        "ark"
      ],
      [
        "ex",
        "am"
      ],
      [
        "din",
        "osaur"
      ],
      [
        "gen",
        "erous"
      ],
      [
        "minut",
        "es"
      ],
      [
        "be",
        "come"
      ],
      [
        "at",
        "es"
      ],
      [
        "ho",
        "pping"
      ],
      [
        "la",
        "w"
      ],
      [
        "ca",
        "se"
      ],
      [
        "no",
        "d"
      ],
      [
        "as",
        "king"
      ],
      [
        "fr",
        "idge"
      ],
      [
        "s",
        "ighed"
      ],
      [
        "whis",
        "per"
      ],
      [
        "ro",
        "te"
      ],
      [
        "Bl",
        "ue"
      ],
      [
        "u",
        "al"
      ],
      [
        "w",
        "rote"
      ],
      [
        "ch",
        "ange"
      ],
      [
        "for",
        "m"
      ],
      [
        "wor",
        "king"
      ],
      [
        "bu",
        "l"
      ],
      [
        "bor",
        "ing"
      ],
      [
        "le",
        "ad"
      ],
      [
        "us",
        "ual"
      ],
      [
        "ta",
        "ken"
      ],
      [
        "che",
        "w"
      ],
      [
        "keep",
        "er"
      ],
      [
        "gr",
        "umpy"
      ],
      [
        "mis",
        "take"
      ],
      [
        "sail",
        "ed"
      ],
      [
        "we",
        "ek"
      ],
      [
        "play",
        "ground"
      ],
      [
        "Tweet",
        "y"
      ],
      [
        "ber",
        "ry"
      ],
      [
        "sweet",
        "ie"
      ],
      [
        "ple",
        "ased"
      ],
      [
        "bath",
        "room"
      ],
      [
        "m",
        "ined"
      ],
      [
        "pp",
        "o"
      ],
      [
        "oft",
        "en"
      ],
      [
        "suc",
        "cess"
      ],
      [
        "so",
        "ar"
      ],
      [
        "kn",
        "ife"
      ],
      [
        "deter",
        "mined"
      ],
      [
        "m",
        "iddle"
      ],
      [
        "c",
        "to"
      ],
      [
        "te",
        "am"
      ],
      [
        "r",
        "id"
      ],
      [
        "t",
        "ag"
      ],
      [
        "cl",
        "ass"
      ],
      [
        "mat",
        "ch"
      ],
      [
        "bo",
        "ss"
      ],
      [
        "che",
        "ck"
      ],
      [
        "fl",
        "uffy"
      ],
      [
        "tr",
        "ue"
      ],
      [
        "draw",
        "ing"
      ],
      [
        "Sus",
        "ie"
      ],
      [
        "d",
        "rank"
      ],
      [
        "lo",
        "se"
      ],
      [
        "mo",
        "ving"
      ],
      [
        "E",
        "lla"
      ],
      [
        "j",
        "elly"
      ],
      [
        "she",
        "ll"
      ],
      [
        "answ",
        "ered"
      ],
      [
        "k",
        "night"
      ],
      [
        "dog",
        "s"
      ],
      [
        "show",
        "s"
      ],
      [
        "b",
        "ake"
      ],
      [
        "we",
        "ak"
      ],
      [
        "exc",
        "ite"
      ],
      [
        "pa",
        "ce"
      ],
      [
        "l",
        "it"
      ],
      [
        "in",
        "a"
      ],
      [
        "so",
        "ld"
      ],
      [
        "pick",
        "s"
      ],
      [
        "quest",
        "ions"
      ],
      [
        "m",
        "ummy"
      ],
      [
        "sm",
        "elly"
      ],
      [
        "M",
        "ark"
      ],
      [
        "ho",
        "se"
      ],
      [
        "so",
        "ap"
      ],
      [
        "me",
        "l"
      ],
      [
        "W",
        "he"
      ],
      [
        "c",
        "her"
      ],
      [
        "gl",
        "ass"
      ],
      [
        "tig",
        "er"
      ],
      [
        "wa",
        "ke"
      ],
      [
        "fa",
        "ther"
      ],
      [
        "Mr",
        "s"
      ],
      [
        "ne",
        "l"
      ],
      [
        "m",
        "ic"
      ],
      [
        "t",
        "ub"
      ],
      [
        "r",
        "ad"
      ],
      [
        "de",
        "p"
      ],
      [
        "bed",
        "room"
      ],
      [
        "br",
        "idge"
      ],
      [
        "might",
        "y"
      ],
      [
        "ly",
        "ing"
      ],
      [
        "ag",
        "ed"
      ],
      [
        "con",
        "tent"
      ],
      [
        "excite",
        "ment"
      ],
      [
        "in",
        "ess"
      ],
      [
        "clean",
        "ed"
      ],
      [
        "s",
        "pace"
      ],
      [
        "hur",
        "ts"
      ],
      [
        "dis",
        "covered"
      ],
      [
        "Be",
        "lla"
      ],
      [
        "dec",
        "ide"
      ],
      [
        "la",
        "zy"
      ],
      [
        "Bo",
        "bo"
      ],
      [
        "mic",
        "ro"
      ],
      [
        "ear",
        "s"
      ],
      [
        "gather",
        "ed"
      ],
      [
        "d",
        "ish"
      ],
      [
        "am",
        "ond"
      ],
      [
        "et",
        "e"
      ],
      [
        "pa",
        "ir"
      ],
      [
        "thank",
        "ful"
      ],
      [
        "im",
        "ed"
      ],
      [
        "O",
        "w"
      ],
      [
        "e",
        "ld"
      ],
      [
        "c",
        "am"
      ],
      [
        "re",
        "la"
      ],
      [
        "que",
        "en"
      ],
      [
        "rela",
        "x"
      ],
      [
        "m",
        "en"
      ],
      [
        "su",
        "it"
      ],
      [
        "dist",
        "ance"
      ],
      [
        "d",
        "ig"
      ],
      [
        "s",
        "il"
      ],
      [
        "sk",
        "ipped"
      ],
      [
        "M",
        "ar"
      ],
      [
        "w",
        "ip"
      ],
      [
        "dis",
        "appeared"
      ],
      [
        "feather",
        "s"
      ],
      [
        "spla",
        "shed"
      ],
      [
        "N",
        "e"
      ],
      [
        "h",
        "i"
      ],
      [
        "r",
        "ough"
      ],
      [
        "il",
        "li"
      ],
      [
        "at",
        "ing"
      ],
      [
        "ma",
        "p"
      ],
      [
        "walk",
        "s"
      ],
      [
        "di",
        "amond"
      ],
      [
        "P",
        "ete"
      ],
      [
        "g",
        "ust"
      ],
      [
        "do",
        "l"
      ],
      [
        "fam",
        "ous"
      ],
      [
        "bor",
        "row"
      ],
      [
        "sug",
        "ar"
      ],
      [
        "e",
        "ye"
      ],
      [
        "li",
        "cked"
      ],
      [
        "ve",
        "st"
      ],
      [
        "bo",
        "o"
      ],
      [
        "al",
        "low"
      ],
      [
        "or",
        "der"
      ],
      [
        "We",
        "ll"
      ],
      [
        "fl",
        "ash"
      ],
      [
        "s",
        "ight"
      ],
      [
        "er",
        "pill"
      ],
      [
        "cat",
        "erpill"
      ],
      [
        "dep",
        "end"
      ],
      [
        "ta",
        "pe"
      ],
      [
        "hor",
        "n"
      ],
      [
        "tun",
        "nel"
      ],
      [
        "ha",
        "m"
      ],
      [
        "call",
        "ing"
      ],
      [
        "flut",
        "e"
      ],
      [
        "r",
        "or"
      ],
      [
        "lo",
        "cked"
      ],
      [
        "g",
        "ue"
      ],
      [
        "in",
        "c"
      ],
      [
        "cha",
        "se"
      ],
      [
        "craw",
        "led"
      ],
      [
        "al",
        "s"
      ],
      [
        "go",
        "at"
      ],
      [
        "sm",
        "o"
      ],
      [
        "stone",
        "s"
      ],
      [
        "t",
        "ain"
      ],
      [
        "run",
        "k"
      ],
      [
        "bal",
        "ance"
      ],
      [
        "li",
        "ft"
      ],
      [
        "kind",
        "ness"
      ],
      [
        "tru",
        "cks"
      ],
      [
        "banan",
        "a"
      ],
      [
        "a",
        "w"
      ],
      [
        "che",
        "erful"
      ],
      [
        "l",
        "amp"
      ],
      [
        "dol",
        "ph"
      ],
      [
        "E",
        "ventually"
      ],
      [
        "re",
        "cord"
      ],
      [
        "eld",
        "er"
      ],
      [
        "se",
        "ll"
      ],
      [
        "your",
        "s"
      ],
      [
        "us",
        "ing"
      ],
      [
        "fall",
        "s"
      ],
      [
        "grand",
        "pa"
      ],
      [
        "ac",
        "ce"
      ],
      [
        "cr",
        "own"
      ],
      [
        "gi",
        "ving"
      ],
      [
        "r",
        "are"
      ],
      [
        "to",
        "es"
      ],
      [
        "un",
        "usual"
      ],
      [
        "ange",
        "l"
      ],
      [
        "bran",
        "ches"
      ],
      [
        "uni",
        "que"
      ],
      [
        "caterpill",
        "ar"
      ],
      [
        "smo",
        "ke"
      ],
      [
        "elder",
        "ly"
      ],
      [
        "y",
        "arn"
      ],
      [
        "il",
        "t"
      ],
      [
        "wra",
        "pped"
      ],
      [
        "organ",
        "ized"
      ],
      [
        "bubble",
        "s"
      ],
      [
        "b",
        "one"
      ],
      [
        "fo",
        "ol"
      ],
      [
        "break",
        "fast"
      ],
      [
        "s",
        "on"
      ],
      [
        "th",
        "ick"
      ],
      [
        "happen",
        "ing"
      ],
      [
        "depend",
        "able"
      ],
      [
        "inc",
        "red"
      ],
      [
        "E",
        "nd"
      ],
      [
        "y",
        "al"
      ],
      [
        "al",
        "ous"
      ],
      [
        "gr",
        "own"
      ],
      [
        "o",
        "bed"
      ],
      [
        "w",
        "is"
      ],
      [
        "we",
        "al"
      ],
      [
        "de",
        "er"
      ],
      [
        "man",
        "aged"
      ],
      [
        "dream",
        "ed"
      ],
      [
        "je",
        "alous"
      ],
      [
        "impress",
        "ed"
      ],
      [
        "mir",
        "ror"
      ],
      [
        "b",
        "itter"
      ],
      [
        "me",
        "asure"
      ],
      [
        "po",
        "log"
      ],
      [
        "fin",
        "e"
      ],
      [
        "no",
        "isy"
      ],
      [
        "co",
        "ins"
      ],
      [
        "br",
        "illi"
      ],
      [
        "cho",
        "ose"
      ],
      [
        "car",
        "t"
      ],
      [
        "advent",
        "ur"
      ],
      [
        "poin",
        "ting"
      ],
      [
        "a",
        "polog"
      ],
      [
        "c",
        "ab"
      ],
      [
        "l",
        "er"
      ],
      [
        "s",
        "care"
      ],
      [
        "to",
        "ug"
      ],
      [
        "mar",
        "ket"
      ],
      [
        "colour",
        "ful"
      ],
      [
        "lif",
        "ted"
      ],
      [
        "ed",
        "ge"
      ],
      [
        "ju",
        "icy"
      ],
      [
        "d",
        "izzy"
      ],
      [
        "on",
        "ce"
      ],
      [
        "se",
        "lves"
      ],
      [
        "mom",
        "s"
      ],
      [
        "need",
        "s"
      ],
      [
        "off",
        "ered"
      ],
      [
        "safe",
        "ly"
      ],
      [
        "obed",
        "ient"
      ],
      [
        "brilli",
        "ant"
      ],
      [
        "m",
        "es"
      ],
      [
        "ha",
        "rm"
      ],
      [
        "mix",
        "ed"
      ],
      [
        "adventur",
        "ous"
      ],
      [
        "g",
        "race"
      ],
      [
        "to",
        "m"
      ],
      [
        "le",
        "an"
      ],
      [
        "ch",
        "ang"
      ],
      [
        "bot",
        "tom"
      ],
      [
        "ci",
        "ent"
      ],
      [
        "sw",
        "an"
      ],
      [
        "sque",
        "e"
      ],
      [
        "fool",
        "ish"
      ],
      [
        "f",
        "our"
      ],
      [
        "exc",
        "la"
      ],
      [
        "Let",
        "â"
      ],
      [
        "com",
        "ple"
      ],
      [
        "laugh",
        "s"
      ],
      [
        "ugg",
        "led"
      ],
      [
        "cab",
        "in"
      ],
      [
        "wo",
        "lf"
      ],
      [
        "box",
        "es"
      ],
      [
        "loud",
        "er"
      ],
      [
        "incred",
        "ible"
      ],
      [
        "excla",
        "imed"
      ],
      [
        "l",
        "id"
      ],
      [
        "lo",
        "yal"
      ],
      [
        "P",
        "au"
      ],
      [
        "or",
        "n"
      ],
      [
        "pe",
        "e"
      ],
      [
        "tw",
        "ig"
      ],
      [
        "fr",
        "own"
      ],
      [
        "add",
        "ed"
      ],
      [
        "toug",
        "h"
      ],
      [
        "D",
        "ucky"
      ],
      [
        "H",
        "o"
      ],
      [
        "bag",
        "s"
      ],
      [
        "t",
        "runk"
      ],
      [
        "ri",
        "ch"
      ],
      [
        "rub",
        "bed"
      ],
      [
        "sug",
        "gest"
      ],
      [
        "c",
        "ro"
      ],
      [
        "hat",
        "s"
      ],
      [
        "ag",
        "ree"
      ],
      [
        "?\"",
        "."
      ],
      [
        "sli",
        "pped"
      ],
      [
        "fig",
        "ure"
      ],
      [
        "D",
        "an"
      ],
      [
        "L",
        "o"
      ],
      [
        "i",
        "pe"
      ],
      [
        "t",
        "i"
      ],
      [
        "tool",
        "s"
      ],
      [
        "an",
        "ut"
      ],
      [
        "Bob",
        "by"
      ],
      [
        "Ne",
        "mo"
      ],
      [
        "b",
        "arn"
      ],
      [
        "ge",
        "m"
      ],
      [
        "ex",
        "t"
      ],
      [
        "te",
        "le"
      ],
      [
        "clean",
        "ing"
      ],
      [
        "Gr",
        "and"
      ],
      [
        "s",
        "cr"
      ],
      [
        "mo",
        "le"
      ],
      [
        "bor",
        "n"
      ],
      [
        "weal",
        "thy"
      ],
      [
        "N",
        "ext"
      ],
      [
        "b",
        "b"
      ],
      [
        "l",
        "ly"
      ],
      [
        "n",
        "ur"
      ],
      [
        "mo",
        "vie"
      ],
      [
        "ep",
        "end"
      ],
      [
        "use",
        "ful"
      ],
      [
        "sun",
        "flower"
      ],
      [
        "cray",
        "on"
      ],
      [
        "c",
        "il"
      ],
      [
        "st",
        "ru"
      ],
      [
        "she",
        "lls"
      ],
      [
        "ex",
        "tra"
      ],
      [
        "again",
        "st"
      ],
      [
        "circle",
        "s"
      ],
      [
        "li",
        "br"
      ],
      [
        "button",
        "s"
      ],
      [
        "z",
        "ed"
      ],
      [
        "wa",
        "lls"
      ],
      [
        "bu",
        "shes"
      ],
      [
        "loud",
        "ly"
      ],
      [
        "p",
        "ort"
      ],
      [
        "w",
        "ing"
      ],
      [
        "ter",
        "ri"
      ],
      [
        "real",
        "ised"
      ],
      [
        "strong",
        "er"
      ],
      [
        "dream",
        "s"
      ],
      [
        "belong",
        "ed"
      ],
      [
        "W",
        "ill"
      ],
      [
        "wa",
        "gon"
      ],
      [
        "at",
        "ure"
      ],
      [
        "fre",
        "sh"
      ],
      [
        "grace",
        "ful"
      ],
      [
        "s",
        "ca"
      ],
      [
        "ind",
        "epend"
      ],
      [
        "ballo",
        "ons"
      ],
      [
        "sear",
        "ch"
      ],
      [
        "w",
        "ha"
      ],
      [
        "is",
        "land"
      ],
      [
        "help",
        "s"
      ],
      [
        "sound",
        "ed"
      ],
      [
        "cla",
        "p"
      ],
      [
        "coun",
        "ted"
      ],
      [
        "A",
        "le"
      ],
      [
        "happ",
        "iness"
      ],
      [
        "off",
        "ice"
      ],
      [
        "R",
        "ose"
      ],
      [
        "g",
        "a"
      ],
      [
        "er",
        "o"
      ],
      [
        "for",
        "k"
      ],
      [
        "boss",
        "y"
      ],
      [
        "f",
        "ic"
      ],
      [
        "know",
        "s"
      ],
      [
        "pen",
        "cil"
      ],
      [
        "st",
        "ub"
      ],
      [
        "pe",
        "anut"
      ],
      [
        "jo",
        "g"
      ],
      [
        "gu",
        "it"
      ],
      [
        "Whe",
        "never"
      ],
      [
        "g",
        "um"
      ],
      [
        "s",
        "word"
      ],
      [
        "house",
        "s"
      ],
      [
        "pain",
        "ted"
      ],
      [
        "stre",
        "am"
      ],
      [
        "in",
        "ation"
      ],
      [
        "lo",
        "pe"
      ],
      [
        "shar",
        "k"
      ],
[...]
